alignas(8) const unsigned char tflite_model[] = {
  0x18, 0x00, 0x00, 0x00, 0x14, 0x00, 0x20, 0x00, 0x1c, 0x00, 0x18, 0x00,
  0x14, 0x00, 0x10, 0x00, 0x0c, 0x00, 0x00, 0x00, 0x08, 0x00, 0x04, 0x00,
  0x14, 0x00, 0x00, 0x00, 0x1c, 0x00, 0x00, 0x00, 0x1c, 0x00, 0x00, 0x00,
  0x4c, 0x00, 0x00, 0x00, 0x70, 0x08, 0x00, 0x00, 0x80, 0x08, 0x00, 0x00,
  0xb4, 0x0e, 0x00, 0x00, 0x03, 0x00, 0x00, 0x00, 0x00, 0x00, 0x00, 0x00,
  0x01, 0x00, 0x00, 0x00, 0x0c, 0x00, 0x00, 0x00, 0x08, 0x00, 0x0c, 0x00,
  0x08, 0x00, 0x04, 0x00, 0x08, 0x00, 0x00, 0x00, 0x05, 0x00, 0x00, 0x00,
  0x04, 0x00, 0x00, 0x00, 0x13, 0x00, 0x00, 0x00, 0x6d, 0x69, 0x6e, 0x5f,
  0x72, 0x75, 0x6e, 0x74, 0x69, 0x6d, 0x65, 0x5f, 0x76, 0x65, 0x72, 0x73,
  0x69, 0x6f, 0x6e, 0x00, 0x06, 0x00, 0x00, 0x00, 0x20, 0x08, 0x00, 0x00,
  0x14, 0x08, 0x00, 0x00, 0xc4, 0x00, 0x00, 0x00, 0x2c, 0x00, 0x00, 0x00,
  0x24, 0x00, 0x00, 0x00, 0x04, 0x00, 0x00, 0x00, 0x52, 0xff, 0xff, 0xff,
  0x04, 0x00, 0x00, 0x00, 0x10, 0x00, 0x00, 0x00, 0x31, 0x2e, 0x31, 0x34,
  0x2e, 0x30, 0x00, 0x00, 0x00, 0x00, 0x00, 0x00, 0x00, 0x00, 0x00, 0x00,
  0x18, 0xf8, 0xff, 0xff, 0x72, 0xff, 0xff, 0xff, 0x04, 0x00, 0x00, 0x00,
  0x80, 0x00, 0x00, 0x00, 0x00, 0x00, 0x00, 0x00, 0x00, 0x00, 0x00, 0x00,
  0x00, 0x00, 0x00, 0x00, 0x00, 0x00, 0x00, 0x00, 0x00, 0x00, 0x00, 0x00,
  0x00, 0x00, 0x00, 0x00, 0x00, 0x00, 0x00, 0x00, 0x00, 0x00, 0x00, 0x00,
  0x00, 0x00, 0x00, 0x00, 0x00, 0x00, 0x00, 0x00, 0x00, 0x00, 0x00, 0x00,
  0x00, 0x00, 0x00, 0x00, 0x00, 0x00, 0x00, 0x00, 0x00, 0x00, 0x00, 0x00,
  0x00, 0x00, 0x00, 0x00, 0x00, 0x00, 0x00, 0x00, 0x00, 0x00, 0x00, 0x00,
  0x00, 0x00, 0x00, 0x00, 0x00, 0x00, 0x00, 0x00, 0x00, 0x00, 0x00, 0x00,
  0x00, 0x00, 0x00, 0x00, 0x00, 0x00, 0x00, 0x00, 0x00, 0x00, 0x00, 0x00,
  0x00, 0x00, 0x00, 0x00, 0x00, 0x00, 0x00, 0x00, 0x00, 0x00, 0x00, 0x00,
  0x00, 0x00, 0x00, 0x00, 0x00, 0x00, 0x00, 0x00, 0x00, 0x00, 0x00, 0x00,
  0x00, 0x00, 0x00, 0x00, 0x00, 0x00, 0x00, 0x00, 0x00, 0x00, 0x00, 0x00,
  0x00, 0x00, 0x06, 0x00, 0x08, 0x00, 0x04, 0x00, 0x06, 0x00, 0x00, 0x00,
  0x04, 0x00, 0x00, 0x00, 0x40, 0x07, 0x00, 0x00, 0xf9, 0xd2, 0x38, 0xf4,
  0xb5, 0xd9, 0x06, 0x13, 0x4a, 0x0a, 0xdb, 0xb7, 0xf0, 0x1f, 0x0a, 0xfb,
  0xb5, 0x2d, 0x9e, 0xe1, 0x44, 0x27, 0x67, 0x36, 0xfc, 0x32, 0xd9, 0x3f,
  0x58, 0xf3, 0xd0, 0xf0, 0xc8, 0x36, 0xc7, 0x57, 0x81, 0x2e, 0x5d, 0x64,
  0xcb, 0xf7, 0xbd, 0xf6, 0x00, 0xcc, 0xcc, 0xb1, 0x13, 0x06, 0xbb, 0x86,
  0x3f, 0x40, 0x06, 0x58, 0xf2, 0xef, 0x34, 0x10, 0x2c, 0x24, 0xdb, 0xf3,
  0xf9, 0xcc, 0x34, 0x4a, 0xd7, 0x79, 0x30, 0xe7, 0xe2, 0x1c, 0x2e, 0x99,
  0x1e, 0x43, 0x0f, 0x4c, 0x0c, 0x58, 0x23, 0x26, 0x3d, 0x30, 0x00, 0x39,
  0xcf, 0x2a, 0xbe, 0xc1, 0x39, 0x2e, 0xcf, 0x2c, 0x0d, 0xfe, 0x0d, 0xa5,
  0x89, 0x1d, 0xc8, 0xdd, 0x4e, 0xe8, 0x27, 0xff, 0x9d, 0x4b, 0xf5, 0x1e,
  0x2e, 0x24, 0xe3, 0x09, 0x11, 0x9d, 0xf5, 0xce, 0x3e, 0x58, 0x90, 0xe8,
  0x48, 0xf5, 0x58, 0xe8, 0x42, 0x07, 0x46, 0x04, 0xcc, 0xe2, 0x2f, 0xee,
  0x03, 0x34, 0xad, 0x89, 0xa3, 0xba, 0x2f, 0xf1, 0x4b, 0x03, 0x88, 0xd3,
  0xc9, 0xd7, 0xe9, 0xfa, 0x21, 0xeb, 0x96, 0xd0, 0xb9, 0x2a, 0xa7, 0x7f,
  0x06, 0xa3, 0x1e, 0x2f, 0x64, 0x0c, 0x02, 0xed, 0xc5, 0xc3, 0x1b, 0x23,
  0xff, 0xc0, 0xff, 0xc1, 0x33, 0x0f, 0xf6, 0xe7, 0xf5, 0xc2, 0xb3, 0x40,
  0xe0, 0x5c, 0x1f, 0x2c, 0xa5, 0x3e, 0x1a, 0x8a, 0x01, 0x1d, 0xb0, 0x40,
  0xef, 0xa1, 0xb0, 0x11, 0x9a, 0x77, 0x44, 0x3a, 0xd5, 0xcd, 0x08, 0xbe,
  0xae, 0x15, 0xb1, 0xc7, 0x3a, 0xe2, 0xbb, 0x42, 0xe8, 0xe7, 0xe7, 0xa9,
  0xf7, 0x4d, 0xfe, 0xfa, 0xff, 0xf8, 0x44, 0x32, 0xe1, 0xa4, 0xfa, 0xe0,
  0x5f, 0xe7, 0x4a, 0x65, 0x0b, 0x1f, 0x0d, 0xae, 0x21, 0x1a, 0x18, 0xa3,
  0x08, 0x18, 0x66, 0x34, 0x49, 0xfb, 0xdf, 0xdc, 0xf7, 0x28, 0xb3, 0x0d,
  0x3f, 0xdc, 0xcf, 0xc6, 0x8b, 0x00, 0x81, 0x10, 0x0a, 0x50, 0xd9, 0xed,
  0xe1, 0xfe, 0x8a, 0xe7, 0xbc, 0xdc, 0x49, 0x6f, 0x42, 0xfd, 0x52, 0xeb,
  0x21, 0x2a, 0x5f, 0xd2, 0x58, 0x13, 0x74, 0x30, 0x0c, 0xc8, 0x57, 0xf7,
  0xeb, 0x22, 0xb9, 0xf9, 0x25, 0x69, 0x5a, 0x2f, 0xe5, 0xcf, 0x31, 0xbd,
  0xc9, 0xda, 0x13, 0x11, 0xdf, 0x9e, 0x3c, 0xf5, 0x18, 0xd8, 0xe5, 0xe2,
  0x47, 0x7c, 0x68, 0xe2, 0x04, 0xe9, 0x13, 0x0d, 0x1f, 0xe2, 0x39, 0x4f,
  0x7e, 0xc2, 0xf7, 0xfb, 0xe4, 0xc2, 0xad, 0x3b, 0x1c, 0x30, 0x6e, 0x31,
  0xe6, 0xc7, 0x22, 0xf7, 0xfb, 0xf3, 0x25, 0x81, 0xe4, 0xe7, 0xc9, 0x13,
  0xf2, 0x10, 0x31, 0xdb, 0x12, 0x18, 0xa5, 0xdd, 0xfb, 0x1e, 0x42, 0xbb,
  0x13, 0x55, 0xfc, 0x4e, 0x60, 0x25, 0x7d, 0x26, 0x67, 0x67, 0xf9, 0x56,
  0x17, 0xd7, 0xf5, 0x9c, 0xcb, 0xc6, 0xcd, 0x07, 0x27, 0xe5, 0x24, 0xf5,
  0xc4, 0xef, 0x1c, 0xe6, 0x22, 0x41, 0x3c, 0x20, 0xef, 0xe0, 0x10, 0x0c,
  0x1d, 0x83, 0x4b, 0x4a, 0x4e, 0x47, 0xf0, 0xd6, 0x16, 0x5a, 0x39, 0xed,
  0x2e, 0xed, 0x00, 0xf5, 0x88, 0xd1, 0xc7, 0x4c, 0x13, 0xcc, 0x07, 0x85,
  0x28, 0x58, 0x09, 0x49, 0x06, 0x71, 0xf5, 0x13, 0x52, 0x56, 0x24, 0x08,
  0x3e, 0x2e, 0x29, 0x35, 0x4f, 0xd1, 0xd3, 0x59, 0x12, 0xda, 0xc4, 0x00,
  0x99, 0x55, 0x4e, 0x16, 0xee, 0xe5, 0x3e, 0xcc, 0xd3, 0x28, 0x16, 0x51,
  0x0e, 0x0a, 0xed, 0xe8, 0xb4, 0x29, 0xda, 0xcd, 0x7f, 0x16, 0xdf, 0xad,
  0x07, 0x28, 0x3d, 0xbb, 0x9b, 0xe4, 0xf6, 0x49, 0xf0, 0xe7, 0x1b, 0x35,
  0x01, 0x15, 0xe3, 0xc4, 0x15, 0x10, 0x09, 0xc3, 0x43, 0x09, 0xf4, 0xe5,
  0x25, 0x9f, 0x7e, 0xee, 0xd9, 0x7d, 0x4c, 0xdf, 0x13, 0xc7, 0x45, 0x55,
  0x2c, 0x44, 0xa3, 0xc0, 0x77, 0x22, 0xff, 0x1e, 0xe1, 0x3f, 0xe8, 0x09,
  0xcd, 0xbd, 0x2e, 0x70, 0xf3, 0xa6, 0xc2, 0xe7, 0x86, 0x67, 0x1a, 0xfd,
  0x12, 0x2c, 0xea, 0x1a, 0x06, 0x42, 0xcf, 0xc5, 0x34, 0x0d, 0x3f, 0xce,
  0xea, 0x0f, 0x9d, 0x1d, 0x23, 0x16, 0x4b, 0x7f, 0x82, 0xf6, 0x2f, 0x0a,
  0xff, 0xf6, 0xe0, 0x8f, 0xbb, 0x9d, 0x0a, 0x58, 0x9f, 0xc3, 0xad, 0x24,
  0x70, 0xd4, 0x1f, 0xea, 0xfd, 0xd3, 0x08, 0x59, 0xda, 0xe7, 0x0f, 0xc7,
  0x33, 0x1b, 0xe8, 0x24, 0x63, 0x54, 0xe4, 0x23, 0x02, 0x47, 0x37, 0xff,
  0x16, 0x1b, 0x2f, 0x6b, 0xa2, 0x1f, 0xe0, 0x34, 0xd8, 0x00, 0x27, 0x26,
  0x35, 0x00, 0x0a, 0xe0, 0x0b, 0x0f, 0xf2, 0x05, 0xd1, 0x48, 0x29, 0x3b,
  0x8c, 0xe4, 0x61, 0x37, 0x0c, 0xb9, 0x29, 0x0d, 0xf0, 0xe6, 0x16, 0xe7,
  0x13, 0x48, 0xc0, 0x65, 0x00, 0x57, 0x1c, 0x33, 0x37, 0x2c, 0x75, 0x24,
  0x4d, 0xf5, 0x28, 0xb8, 0x20, 0x03, 0xca, 0x21, 0xa8, 0x12, 0xfe, 0x37,
  0x1a, 0x32, 0xae, 0x5b, 0xcf, 0x34, 0x3a, 0xd9, 0xb3, 0x72, 0x1c, 0xd4,
  0x5c, 0x05, 0xde, 0xf3, 0x7e, 0x2a, 0x72, 0x81, 0xeb, 0x21, 0xc7, 0x46,
  0x0e, 0xec, 0x35, 0x26, 0xee, 0xe5, 0x30, 0xf0, 0xec, 0xc9, 0xf4, 0x31,
  0xc6, 0xe7, 0x3f, 0x33, 0xf9, 0x09, 0xc1, 0x26, 0xde, 0xa4, 0xe0, 0x4c,
  0x75, 0x10, 0x55, 0xa2, 0xc2, 0xf1, 0x41, 0x39, 0x31, 0xfd, 0x04, 0xf9,
  0xee, 0x55, 0x28, 0x13, 0x10, 0x0e, 0xf3, 0xe6, 0x45, 0xfc, 0xcc, 0xff,
  0xd0, 0xff, 0x16, 0x1e, 0x19, 0xed, 0x91, 0xe7, 0xc6, 0x2b, 0x28, 0xbb,
  0xed, 0x4d, 0x1f, 0x14, 0x9c, 0xfd, 0x51, 0xb5, 0xa4, 0xe9, 0x3d, 0x11,
  0x2d, 0x22, 0x52, 0x6e, 0x12, 0xaf, 0x7e, 0xfe, 0x8b, 0x13, 0x3d, 0x6a,
  0xf6, 0x14, 0xef, 0x01, 0x0e, 0x0c, 0xdd, 0x3e, 0xd6, 0x72, 0x2f, 0xa0,
  0x2d, 0xe7, 0xf0, 0x69, 0xbd, 0xa6, 0xc8, 0x0c, 0xfd, 0x81, 0x56, 0x5c,
  0xe7, 0x23, 0xd7, 0x82, 0x39, 0x52, 0xc4, 0xdb, 0x16, 0xd0, 0xbe, 0x0a,
  0xe0, 0xfc, 0x0d, 0xf6, 0x5b, 0xbb, 0xd2, 0xff, 0xb8, 0x40, 0x55, 0x14,
  0x11, 0x3b, 0x13, 0x40, 0x25, 0xc3, 0xf4, 0x97, 0xee, 0xf8, 0x1d, 0x62,
  0x25, 0xed, 0x30, 0x7c, 0x00, 0xfc, 0xc0, 0xcb, 0x54, 0x23, 0x28, 0x06,
  0x7d, 0x53, 0x06, 0x9a, 0xcc, 0x06, 0xe2, 0xc2, 0x07, 0x2c, 0x2a, 0xc2,
  0x11, 0x27, 0x90, 0x41, 0xdc, 0xab, 0x1e, 0x3c, 0xe1, 0x01, 0x89, 0xd0,
  0x3a, 0xe0, 0xee, 0x19, 0x26, 0x42, 0x42, 0x2c, 0xab, 0x32, 0xb8, 0x45,
  0xc9, 0xc1, 0xa6, 0x61, 0x39, 0x74, 0x68, 0xf1, 0xb6, 0x1b, 0xdd, 0x0f,
  0xcb, 0xa8, 0x8e, 0x3a, 0x16, 0x81, 0xd5, 0xc6, 0x55, 0x19, 0xfb, 0xb1,
  0xc7, 0x2f, 0xfb, 0x48, 0x29, 0xe5, 0x08, 0xd2, 0xd8, 0x46, 0xcf, 0x45,
  0x8b, 0x25, 0x31, 0x5e, 0x9b, 0xfb, 0xe3, 0x1a, 0x26, 0x64, 0x02, 0x34,
  0x08, 0xc3, 0x33, 0xff, 0x44, 0x4f, 0xc8, 0x7a, 0x1d, 0x02, 0x36, 0x23,
  0xa2, 0x7f, 0x20, 0xee, 0x29, 0x2b, 0x1a, 0x2c, 0xef, 0xdf, 0x0c, 0x28,
  0xd2, 0xcf, 0x17, 0xeb, 0x33, 0xc3, 0x17, 0x32, 0x76, 0x5a, 0xba, 0x24,
  0x07, 0x54, 0x43, 0x23, 0x9f, 0x21, 0x30, 0x50, 0xf2, 0xe9, 0x64, 0xed,
  0x13, 0xf3, 0xb9, 0x57, 0xd5, 0x27, 0xda, 0x60, 0x00, 0x29, 0xf0, 0x43,
  0xed, 0x31, 0x3a, 0x9e, 0x4b, 0xce, 0x88, 0xfe, 0xb7, 0x2e, 0xa6, 0x0a,
  0x53, 0x72, 0xe3, 0x2d, 0x41, 0x98, 0xca, 0xd6, 0x2e, 0xf4, 0xd4, 0x29,
  0x3d, 0xdd, 0x9a, 0xf2, 0x1b, 0x43, 0x3b, 0x03, 0xd3, 0xba, 0x19, 0x3e,
  0xb5, 0x26, 0x0c, 0xe4, 0x15, 0x2e, 0xba, 0x45, 0xc1, 0x8d, 0x9a, 0x43,
  0x26, 0x26, 0x8f, 0xfa, 0xb2, 0x49, 0xf6, 0x0c, 0x81, 0x30, 0xc7, 0xa0,
  0x08, 0xc4, 0x0b, 0x9f, 0x22, 0xa8, 0x03, 0x9f, 0x02, 0x08, 0x3b, 0x4c,
  0x71, 0x3c, 0xf4, 0x46, 0xe6, 0xb3, 0xfd, 0x49, 0xab, 0x07, 0x09, 0xf7,
  0x0d, 0x95, 0xcb, 0xdb, 0xc2, 0xc8, 0xff, 0x44, 0xad, 0x1f, 0xc9, 0x04,
  0xf3, 0xe9, 0x17, 0x2b, 0xf2, 0x0a, 0xc7, 0xfa, 0xa6, 0x45, 0xe4, 0xd4,
  0xb2, 0x18, 0x9c, 0xf0, 0x72, 0xc4, 0xea, 0x29, 0xf7, 0xed, 0xfd, 0xd2,
  0xf3, 0xb2, 0xea, 0x31, 0xe5, 0xfa, 0x51, 0x32, 0x05, 0x93, 0xc2, 0x34,
  0xa7, 0x48, 0xdb, 0xe0, 0x15, 0xa9, 0x13, 0x20, 0x6f, 0x38, 0x97, 0xb4,
  0x0f, 0xbd, 0x35, 0xff, 0xd0, 0x0a, 0xd5, 0x78, 0x0a, 0xdb, 0xee, 0xba,
  0x13, 0xbb, 0x52, 0x29, 0xde, 0x86, 0x39, 0x59, 0x81, 0xd8, 0x4a, 0x01,
  0xe2, 0x17, 0xc0, 0x62, 0x20, 0x37, 0x45, 0xd2, 0xf8, 0x3f, 0x52, 0xf4,
  0xac, 0x81, 0x88, 0x0b, 0x8e, 0xb3, 0xf5, 0x1c, 0xb3, 0x30, 0x61, 0xc6,
  0x54, 0x0c, 0x2b, 0x16, 0x4a, 0xfd, 0xf8, 0x18, 0x2b, 0xe9, 0x04, 0xa0,
  0x1b, 0x22, 0x36, 0xf6, 0xbc, 0xe9, 0x19, 0x4d, 0x2e, 0xa1, 0x07, 0x94,
  0x18, 0x18, 0x4d, 0x68, 0x6f, 0x1b, 0x05, 0x45, 0x17, 0x36, 0xd0, 0xe2,
  0x29, 0xff, 0xf5, 0x0f, 0x9f, 0x24, 0x2f, 0x25, 0x13, 0x03, 0x39, 0x53,
  0x1d, 0xf4, 0xe3, 0xcf, 0xed, 0x9e, 0x42, 0x0a, 0xef, 0xf2, 0x7f, 0x98,
  0xf6, 0x03, 0x03, 0x91, 0xdc, 0xd7, 0x87, 0x03, 0xec, 0x3e, 0x40, 0x36,
  0xf2, 0xaf, 0x0e, 0x4f, 0x55, 0x08, 0xf5, 0xe2, 0xba, 0x02, 0x15, 0x07,
  0xe2, 0xe8, 0x0a, 0xba, 0x3b, 0xc1, 0xfc, 0x84, 0x47, 0xcb, 0x29, 0x21,
  0xcc, 0x49, 0xf3, 0xc8, 0x47, 0x1f, 0xb6, 0xbf, 0x5d, 0x69, 0x27, 0x72,
  0x20, 0xe7, 0x3c, 0xa8, 0xdc, 0x32, 0x00, 0x2a, 0x94, 0x08, 0x2c, 0x2b,
  0x6c, 0xca, 0x3c, 0x15, 0xcf, 0x26, 0xae, 0x38, 0x04, 0xf7, 0x38, 0x04,
  0xd2, 0xe5, 0xcd, 0xde, 0x5f, 0xcc, 0x0b, 0xed, 0x1d, 0xb9, 0x55, 0x24,
  0xe0, 0x23, 0xc7, 0xee, 0xf3, 0xee, 0x3c, 0x57, 0xc2, 0xe4, 0xf0, 0xc2,
  0x19, 0xca, 0xe2, 0x3b, 0x81, 0xe2, 0x42, 0x52, 0x97, 0xf5, 0x59, 0x15,
  0x1b, 0x8f, 0xcf, 0x2a, 0xa9, 0xef, 0x01, 0x3c, 0x49, 0x2f, 0x42, 0x45,
  0xcd, 0x23, 0xe8, 0x01, 0xe4, 0x9e, 0x02, 0xce, 0x45, 0x6f, 0xa8, 0x43,
  0xa6, 0x92, 0x18, 0x5f, 0xf9, 0x97, 0x11, 0xbe, 0x30, 0xf7, 0x2c, 0xe5,
  0x16, 0x01, 0xe8, 0x1c, 0xa9, 0xda, 0x2c, 0xcc, 0xb8, 0xd5, 0x30, 0xb7,
  0xfd, 0x29, 0xb4, 0x27, 0x48, 0x0b, 0x41, 0x61, 0x30, 0xc9, 0xf0, 0xc1,
  0xec, 0x3b, 0xb5, 0xd3, 0xde, 0xf0, 0xf8, 0x39, 0xdc, 0x5b, 0x2b, 0xe9,
  0xe7, 0x2d, 0x1a, 0x7f, 0x1d, 0xd8, 0x49, 0xec, 0x34, 0x19, 0xf5, 0xb1,
  0x58, 0xd1, 0xe9, 0x42, 0x61, 0xf6, 0x50, 0xee, 0x13, 0xfd, 0x3d, 0x24,
  0xa2, 0xf3, 0x54, 0x58, 0x12, 0x04, 0xb6, 0xbb, 0x90, 0x08, 0x2c, 0x36,
  0x61, 0x12, 0x2d, 0x89, 0xdb, 0x13, 0xee, 0x29, 0xf4, 0x23, 0x6f, 0x91,
  0x44, 0xec, 0xd2, 0x6a, 0x5a, 0x23, 0x13, 0xe7, 0x16, 0xea, 0x6b, 0xe9,
  0x02, 0xf0, 0x1c, 0x9b, 0xb6, 0xed, 0x40, 0x07, 0xd3, 0x33, 0x97, 0x35,
  0xc3, 0x1d, 0xe6, 0xdd, 0xc4, 0x2f, 0x2c, 0x23, 0x10, 0x01, 0x25, 0x03,
  0x39, 0xa2, 0x1f, 0xda, 0x09, 0x75, 0x43, 0xe3, 0x81, 0x6a, 0x0c, 0x72,
  0x33, 0xaa, 0xe6, 0x13, 0x1b, 0x37, 0xc7, 0x11, 0x0d, 0x1d, 0x66, 0x23,
  0xb1, 0xce, 0xa9, 0x65, 0x06, 0xfa, 0xd8, 0xf8, 0xe6, 0x36, 0x96, 0x22,
  0xd2, 0x9c, 0x07, 0xb4, 0xb8, 0x39, 0xc8, 0x1b, 0xa7, 0xf6, 0x21, 0xb4,
  0xf2, 0x02, 0x34, 0xe2, 0x0c, 0xbf, 0xe1, 0x5f, 0xa5, 0xcf, 0x95, 0xe8,
  0xb2, 0x15, 0x06, 0x43, 0x27, 0xcd, 0x47, 0xed, 0x17, 0x48, 0x45, 0xd9,
  0x16, 0x25, 0xc2, 0xf0, 0x00, 0xf0, 0x61, 0x63, 0xfe, 0x64, 0x2c, 0xda,
  0x14, 0xa3, 0xc8, 0x17, 0x00, 0xf4, 0xea, 0x00, 0x28, 0x3d, 0x97, 0x12,
  0x1a, 0xa8, 0xba, 0xf9, 0xda, 0xf1, 0x24, 0x24, 0xb6, 0xdd, 0x58, 0x28,
  0x45, 0xf4, 0x00, 0x18, 0x63, 0x15, 0xe9, 0xde, 0x3b, 0xbb, 0xc6, 0xbb,
  0xa2, 0xd8, 0x1e, 0x78, 0x2b, 0x3d, 0x24, 0xfa, 0x11, 0xdb, 0xd3, 0x04,
  0x5b, 0x0c, 0x0b, 0x2c, 0xa2, 0xf7, 0xf6, 0x33, 0xf8, 0xba, 0x14, 0x78,
  0x3a, 0x1f, 0x12, 0x3a, 0x3b, 0xfb, 0xfb, 0x38, 0x7f, 0xcf, 0xff, 0x01,
  0x2e, 0xae, 0xa0, 0xcd, 0xdc, 0xd2, 0xd8, 0x6f, 0x92, 0xc2, 0xda, 0x7b,
  0xd9, 0xca, 0xf5, 0xd9, 0x1f, 0xc3, 0x53, 0xe6, 0x2b, 0x08, 0x37, 0xa6,
  0xa9, 0xfa, 0x81, 0x14, 0xfb, 0x0c, 0xfa, 0x02, 0xd2, 0x05, 0x8d, 0x04,
  0x7c, 0x24, 0x27, 0x13, 0x98, 0x38, 0xe4, 0x2d, 0xcd, 0x12, 0xcc, 0xea,
  0x40, 0xd6, 0x2d, 0xd3, 0x2a, 0xa2, 0x3e, 0x03, 0xc9, 0xe7, 0xc5, 0xb4,
  0xc3, 0xf5, 0x16, 0xe9, 0xec, 0xcc, 0xdb, 0x3c, 0xf0, 0xec, 0xf6, 0xf8,
  0x6a, 0xac, 0xf9, 0xa9, 0xed, 0x22, 0x07, 0xe5, 0x14, 0xe3, 0xee, 0xeb,
  0xe9, 0xef, 0x1f, 0x2b, 0x2b, 0xe4, 0x38, 0x5d, 0x08, 0x6c, 0xcb, 0xdb,
  0x19, 0xb1, 0xfc, 0x23, 0xc5, 0xbe, 0x2b, 0xc6, 0x23, 0xb9, 0xca, 0xcc,
  0xdf, 0xe2, 0xf2, 0xce, 0xe2, 0x9b, 0xac, 0x61, 0x1b, 0xf5, 0xfd, 0x17,
  0xab, 0xac, 0x17, 0xa4, 0xbc, 0x0f, 0xac, 0x5f, 0xc4, 0xe5, 0xf7, 0xf6,
  0x18, 0xd1, 0xc1, 0x3f, 0x49, 0xa4, 0xa8, 0x3b, 0x9d, 0xe6, 0xea, 0x3a,
  0x68, 0x24, 0x07, 0x2e, 0xce, 0x47, 0xe8, 0x0f, 0xa6, 0xf1, 0xc8, 0x09,
  0xc7, 0xae, 0x14, 0xb1, 0x08, 0xdd, 0x03, 0x10, 0xee, 0xf9, 0x16, 0x9e,
  0x41, 0x02, 0x1f, 0xa6, 0x22, 0xb0, 0x00, 0xe0, 0xfa, 0x81, 0x3d, 0xeb,
  0x07, 0x28, 0x41, 0x16, 0x60, 0x5e, 0x63, 0x98, 0x20, 0xf7, 0x0b, 0x46,
  0xc7, 0x03, 0x5b, 0x01, 0xe1, 0xd7, 0xf0, 0x05, 0xaa, 0x25, 0x9b, 0x16,
  0x0b, 0x41, 0xdc, 0x4c, 0xfc, 0xff, 0xff, 0xff, 0x04, 0x00, 0x04, 0x00,
  0x04, 0x00, 0x00, 0x00, 0x0f, 0x00, 0x00, 0x00, 0x4d, 0x4c, 0x49, 0x52,
  0x20, 0x43, 0x6f, 0x6e, 0x76, 0x65, 0x72, 0x74, 0x65, 0x64, 0x2e, 0x00,
  0x01, 0x00, 0x00, 0x00, 0x14, 0x00, 0x00, 0x00, 0x00, 0x00, 0x0e, 0x00,
  0x18, 0x00, 0x14, 0x00, 0x10, 0x00, 0x0c, 0x00, 0x08, 0x00, 0x04, 0x00,
  0x0e, 0x00, 0x00, 0x00, 0x14, 0x00, 0x00, 0x00, 0x1c, 0x00, 0x00, 0x00,
  0x74, 0x00, 0x00, 0x00, 0x78, 0x00, 0x00, 0x00, 0x7c, 0x00, 0x00, 0x00,
  0x04, 0x00, 0x00, 0x00, 0x6d, 0x61, 0x69, 0x6e, 0x00, 0x00, 0x00, 0x00,
  0x01, 0x00, 0x00, 0x00, 0x14, 0x00, 0x00, 0x00, 0x00, 0x00, 0x0e, 0x00,
  0x16, 0x00, 0x00, 0x00, 0x10, 0x00, 0x0c, 0x00, 0x0b, 0x00, 0x04, 0x00,
  0x0e, 0x00, 0x00, 0x00, 0x1c, 0x00, 0x00, 0x00, 0x00, 0x00, 0x00, 0x01,
  0x20, 0x00, 0x00, 0x00, 0x24, 0x00, 0x00, 0x00, 0x00, 0x00, 0x0a, 0x00,
  0x0c, 0x00, 0x00, 0x00, 0x08, 0x00, 0x04, 0x00, 0x0a, 0x00, 0x00, 0x00,
  0x01, 0x00, 0x00, 0x00, 0x01, 0x00, 0x00, 0x00, 0x01, 0x00, 0x00, 0x00,
  0x03, 0x00, 0x00, 0x00, 0x03, 0x00, 0x00, 0x00, 0x00, 0x00, 0x00, 0x00,
  0x01, 0x00, 0x00, 0x00, 0x02, 0x00, 0x00, 0x00, 0x01, 0x00, 0x00, 0x00,
  0x03, 0x00, 0x00, 0x00, 0x01, 0x00, 0x00, 0x00, 0x00, 0x00, 0x00, 0x00,
  0x04, 0x00, 0x00, 0x00, 0x24, 0x05, 0x00, 0x00, 0x70, 0x02, 0x00, 0x00,
  0x68, 0x00, 0x00, 0x00, 0x04, 0x00, 0x00, 0x00, 0xfa, 0xfa, 0xff, 0xff,
  0x14, 0x00, 0x00, 0x00, 0x34, 0x00, 0x00, 0x00, 0x04, 0x00, 0x00, 0x00,
  0x00, 0x00, 0x00, 0x09, 0x38, 0x00, 0x00, 0x00, 0xec, 0xfa, 0xff, 0xff,
  0x08, 0x00, 0x00, 0x00, 0x14, 0x00, 0x00, 0x00, 0x01, 0x00, 0x00, 0x00,
  0xdc, 0xff, 0xff, 0xff, 0xff, 0xff, 0xff, 0xff, 0x00, 0x00, 0x00, 0x00,
  0x01, 0x00, 0x00, 0x00, 0xeb, 0x25, 0x2e, 0x3c, 0x08, 0x00, 0x00, 0x00,
  0x49, 0x64, 0x65, 0x6e, 0x74, 0x69, 0x74, 0x79, 0x00, 0x00, 0x00, 0x00,
  0x04, 0x00, 0x00, 0x00, 0x01, 0x00, 0x00, 0x00, 0x10, 0x00, 0x00, 0x00,
  0x10, 0x00, 0x00, 0x00, 0x20, 0x00, 0x00, 0x00, 0x5a, 0xfb, 0xff, 0xff,
  0x14, 0x00, 0x00, 0x00, 0xa8, 0x01, 0x00, 0x00, 0x03, 0x00, 0x00, 0x00,
  0x00, 0x00, 0x00, 0x02, 0xd4, 0x01, 0x00, 0x00, 0x4c, 0xfb, 0xff, 0xff,
  0x08, 0x00, 0x00, 0x00, 0x0c, 0x01, 0x00, 0x00, 0x20, 0x00, 0x00, 0x00,
  0x00, 0x00, 0x00, 0x00, 0x00, 0x00, 0x00, 0x00, 0x00, 0x00, 0x00, 0x00,
  0x00, 0x00, 0x00, 0x00, 0x00, 0x00, 0x00, 0x00, 0x00, 0x00, 0x00, 0x00,
  0x00, 0x00, 0x00, 0x00, 0x00, 0x00, 0x00, 0x00, 0x00, 0x00, 0x00, 0x00,
  0x00, 0x00, 0x00, 0x00, 0x00, 0x00, 0x00, 0x00, 0x00, 0x00, 0x00, 0x00,
  0x00, 0x00, 0x00, 0x00, 0x00, 0x00, 0x00, 0x00, 0x00, 0x00, 0x00, 0x00,
  0x00, 0x00, 0x00, 0x00, 0x00, 0x00, 0x00, 0x00, 0x00, 0x00, 0x00, 0x00,
  0x00, 0x00, 0x00, 0x00, 0x00, 0x00, 0x00, 0x00, 0x00, 0x00, 0x00, 0x00,
  0x00, 0x00, 0x00, 0x00, 0x00, 0x00, 0x00, 0x00, 0x00, 0x00, 0x00, 0x00,
  0x00, 0x00, 0x00, 0x00, 0x00, 0x00, 0x00, 0x00, 0x00, 0x00, 0x00, 0x00,
  0x00, 0x00, 0x00, 0x00, 0x00, 0x00, 0x00, 0x00, 0x00, 0x00, 0x00, 0x00,
  0x00, 0x00, 0x00, 0x00, 0x00, 0x00, 0x00, 0x00, 0x00, 0x00, 0x00, 0x00,
  0x00, 0x00, 0x00, 0x00, 0x00, 0x00, 0x00, 0x00, 0x00, 0x00, 0x00, 0x00,
  0x00, 0x00, 0x00, 0x00, 0x00, 0x00, 0x00, 0x00, 0x00, 0x00, 0x00, 0x00,
  0x00, 0x00, 0x00, 0x00, 0x00, 0x00, 0x00, 0x00, 0x00, 0x00, 0x00, 0x00,
  0x00, 0x00, 0x00, 0x00, 0x00, 0x00, 0x00, 0x00, 0x00, 0x00, 0x00, 0x00,
  0x00, 0x00, 0x00, 0x00, 0x00, 0x00, 0x00, 0x00, 0x00, 0x00, 0x00, 0x00,
  0x00, 0x00, 0x00, 0x00, 0x00, 0x00, 0x00, 0x00, 0x00, 0x00, 0x00, 0x00,
  0x00, 0x00, 0x00, 0x00, 0x00, 0x00, 0x00, 0x00, 0x00, 0x00, 0x00, 0x00,
  0x00, 0x00, 0x00, 0x00, 0x00, 0x00, 0x00, 0x00, 0x00, 0x00, 0x00, 0x00,
  0x00, 0x00, 0x00, 0x00, 0x00, 0x00, 0x00, 0x00, 0x00, 0x00, 0x00, 0x00,
  0x00, 0x00, 0x00, 0x00, 0x00, 0x00, 0x00, 0x00, 0x00, 0x00, 0x00, 0x00,
  0x00, 0x00, 0x00, 0x00, 0x00, 0x00, 0x00, 0x00, 0x20, 0x00, 0x00, 0x00,
  0x5c, 0x65, 0x7f, 0x36, 0x4c, 0x67, 0x77, 0x36, 0xa8, 0x85, 0x7b, 0x36,
  0x7c, 0xbe, 0x86, 0x31, 0x7c, 0xbe, 0x86, 0x31, 0xfe, 0xf7, 0x80, 0x36,
  0x7c, 0x0f, 0x8a, 0x36, 0xd4, 0x5b, 0x79, 0x36, 0x7c, 0xbe, 0x86, 0x31,
  0x7c, 0xbe, 0x86, 0x31, 0x7c, 0xbe, 0x86, 0x31, 0x5f, 0x14, 0x8a, 0x36,
  0x5a, 0xf7, 0x89, 0x36, 0x7c, 0xbe, 0x86, 0x31, 0x7c, 0xbe, 0x86, 0x31,
  0xdb, 0xcc, 0x87, 0x36, 0xad, 0xb2, 0x88, 0x36, 0x9b, 0x3c, 0x89, 0x36,
  0x45, 0xc6, 0x8a, 0x36, 0x7c, 0xbe, 0x86, 0x31, 0x2b, 0xb5, 0x8a, 0x36,
  0xfa, 0x82, 0x86, 0x36, 0x96, 0x23, 0x8a, 0x36, 0x7c, 0xbe, 0x86, 0x31,
  0xc8, 0x78, 0x83, 0x36, 0x7c, 0xbe, 0x86, 0x31, 0x7c, 0xbe, 0x86, 0x31,
  0xb8, 0x7e, 0x7e, 0x36, 0x7c, 0xbe, 0x86, 0x31, 0x29, 0xcb, 0x87, 0x36,
  0x49, 0x61, 0x88, 0x36, 0xff, 0x4c, 0x87, 0x36, 0x32, 0x00, 0x00, 0x00,
  0x73, 0x65, 0x71, 0x75, 0x65, 0x6e, 0x74, 0x69, 0x61, 0x6c, 0x2f, 0x63,
  0x6f, 0x6e, 0x76, 0x32, 0x64, 0x2f, 0x42, 0x69, 0x61, 0x73, 0x41, 0x64,
  0x64, 0x3b, 0x73, 0x65, 0x71, 0x75, 0x65, 0x6e, 0x74, 0x69, 0x61, 0x6c,
  0x2f, 0x63, 0x6f, 0x6e, 0x76, 0x32, 0x64, 0x2f, 0x43, 0x6f, 0x6e, 0x76,
  0x32, 0x44, 0x00, 0x00, 0x01, 0x00, 0x00, 0x00, 0x20, 0x00, 0x00, 0x00,
  0x00, 0x00, 0x12, 0x00, 0x1c, 0x00, 0x18, 0x00, 0x17, 0x00, 0x10, 0x00,
  0x0c, 0x00, 0x08, 0x00, 0x00, 0x00, 0x04, 0x00, 0x12, 0x00, 0x00, 0x00,
  0x24, 0x00, 0x00, 0x00, 0xcc, 0x00, 0x00, 0x00, 0x60, 0x02, 0x00, 0x00,
  0x02, 0x00, 0x00, 0x00, 0x00, 0x00, 0x00, 0x09, 0x74, 0x02, 0x00, 0x00,
  0x0c, 0x00, 0x0a, 0x00, 0x00, 0x00, 0x00, 0x00, 0x00, 0x00, 0x04, 0x00,
  0x0c, 0x00, 0x00, 0x00, 0x10, 0x00, 0x00, 0x00, 0x00, 0x00, 0x0a, 0x00,
  0x10, 0x00, 0x0c, 0x00, 0x08, 0x00, 0x06, 0x00, 0x0a, 0x00, 0x00, 0x00,
  0x00, 0x00, 0x40, 0x00, 0x08, 0x00, 0x00, 0x00, 0x44, 0x00, 0x00, 0x00,
  0x1d, 0x00, 0x00, 0x00, 0xc0, 0x00, 0x80, 0x01, 0x40, 0x00, 0x80, 0x00,
  0x40, 0x01, 0x80, 0x00, 0x40, 0x01, 0xc0, 0x01, 0x40, 0x01, 0x40, 0x00,
  0x00, 0x02, 0x40, 0x00, 0x00, 0x02, 0x00, 0x00, 0x00, 0x01, 0x80, 0x01,
  0x40, 0x01, 0x40, 0x01, 0x00, 0x02, 0x40, 0x01, 0xc0, 0x00, 0x00, 0x00,
  0x80, 0x01, 0x80, 0x00, 0x40, 0x00, 0x80, 0x01, 0x00, 0x02, 0x00, 0x01,
  0x00, 0x02, 0x00, 0x00, 0x21, 0x00, 0x00, 0x00, 0x00, 0x00, 0x02, 0x00,
  0x04, 0x00, 0x05, 0x00, 0x05, 0x00, 0x05, 0x00, 0x06, 0x00, 0x08, 0x00,
  0x09, 0x00, 0x09, 0x00, 0x09, 0x00, 0x09, 0x00, 0x0b, 0x00, 0x0d, 0x00,
  0x0d, 0x00, 0x0d, 0x00, 0x0e, 0x00, 0x10, 0x00, 0x11, 0x00, 0x12, 0x00,
  0x12, 0x00, 0x13, 0x00, 0x14, 0x00, 0x15, 0x00, 0x15, 0x00, 0x17, 0x00,
  0x17, 0x00, 0x17, 0x00, 0x18, 0x00, 0x18, 0x00, 0x1a, 0x00, 0x1b, 0x00,
  0x1d, 0x00, 0x00, 0x00, 0x0c, 0xfe, 0xff, 0xff, 0x08, 0x00, 0x00, 0x00,
  0x0c, 0x01, 0x00, 0x00, 0x20, 0x00, 0x00, 0x00, 0x00, 0x00, 0x00, 0x00,
  0x00, 0x00, 0x00, 0x00, 0x00, 0x00, 0x00, 0x00, 0x00, 0x00, 0x00, 0x00,
  0x00, 0x00, 0x00, 0x00, 0x00, 0x00, 0x00, 0x00, 0x00, 0x00, 0x00, 0x00,
  0x00, 0x00, 0x00, 0x00, 0x00, 0x00, 0x00, 0x00, 0x00, 0x00, 0x00, 0x00,
  0x00, 0x00, 0x00, 0x00, 0x00, 0x00, 0x00, 0x00, 0x00, 0x00, 0x00, 0x00,
  0x00, 0x00, 0x00, 0x00, 0x00, 0x00, 0x00, 0x00, 0x00, 0x00, 0x00, 0x00,
  0x00, 0x00, 0x00, 0x00, 0x00, 0x00, 0x00, 0x00, 0x00, 0x00, 0x00, 0x00,
  0x00, 0x00, 0x00, 0x00, 0x00, 0x00, 0x00, 0x00, 0x00, 0x00, 0x00, 0x00,
  0x00, 0x00, 0x00, 0x00, 0x00, 0x00, 0x00, 0x00, 0x00, 0x00, 0x00, 0x00,
  0x00, 0x00, 0x00, 0x00, 0x00, 0x00, 0x00, 0x00, 0x00, 0x00, 0x00, 0x00,
  0x00, 0x00, 0x00, 0x00, 0x00, 0x00, 0x00, 0x00, 0x00, 0x00, 0x00, 0x00,
  0x00, 0x00, 0x00, 0x00, 0x00, 0x00, 0x00, 0x00, 0x00, 0x00, 0x00, 0x00,
  0x00, 0x00, 0x00, 0x00, 0x00, 0x00, 0x00, 0x00, 0x00, 0x00, 0x00, 0x00,
  0x00, 0x00, 0x00, 0x00, 0x00, 0x00, 0x00, 0x00, 0x00, 0x00, 0x00, 0x00,
  0x00, 0x00, 0x00, 0x00, 0x00, 0x00, 0x00, 0x00, 0x00, 0x00, 0x00, 0x00,
  0x00, 0x00, 0x00, 0x00, 0x00, 0x00, 0x00, 0x00, 0x00, 0x00, 0x00, 0x00,
  0x00, 0x00, 0x00, 0x00, 0x00, 0x00, 0x00, 0x00, 0x00, 0x00, 0x00, 0x00,
  0x00, 0x00, 0x00, 0x00, 0x00, 0x00, 0x00, 0x00, 0x00, 0x00, 0x00, 0x00,
  0x00, 0x00, 0x00, 0x00, 0x00, 0x00, 0x00, 0x00, 0x00, 0x00, 0x00, 0x00,
  0x00, 0x00, 0x00, 0x00, 0x00, 0x00, 0x00, 0x00, 0x00, 0x00, 0x00, 0x00,
  0x00, 0x00, 0x00, 0x00, 0x00, 0x00, 0x00, 0x00, 0x00, 0x00, 0x00, 0x00,
  0x00, 0x00, 0x00, 0x00, 0x00, 0x00, 0x00, 0x00, 0x00, 0x00, 0x00, 0x00,
  0x00, 0x00, 0x00, 0x00, 0x20, 0x00, 0x00, 0x00, 0xf6, 0x65, 0x7e, 0x3a,
  0xe4, 0x6f, 0x76, 0x3a, 0x21, 0x8a, 0x7a, 0x3a, 0xbd, 0x37, 0x86, 0x35,
  0xbd, 0x37, 0x86, 0x35, 0x06, 0x77, 0x80, 0x3a, 0x6c, 0x85, 0x89, 0x3a,
  0x77, 0x62, 0x78, 0x3a, 0xbd, 0x37, 0x86, 0x35, 0xbd, 0x37, 0x86, 0x35,
  0xbd, 0x37, 0x86, 0x35, 0x4a, 0x8a, 0x89, 0x3a, 0x62, 0x6d, 0x89, 0x3a,
  0xbd, 0x37, 0x86, 0x35, 0xbd, 0x37, 0x86, 0x35, 0x0e, 0x45, 0x87, 0x3a,
  0xfa, 0x29, 0x88, 0x3a, 0x5e, 0xb3, 0x88, 0x3a, 0x7e, 0x3b, 0x8a, 0x3a,
  0xbd, 0x37, 0x86, 0x35, 0x75, 0x2a, 0x8a, 0x3a, 0x77, 0xfc, 0x85, 0x3a,
  0x72, 0x99, 0x89, 0x3a, 0xbd, 0x37, 0x86, 0x35, 0x4f, 0xf5, 0x82, 0x3a,
  0xbd, 0x37, 0x86, 0x35, 0xbd, 0x37, 0x86, 0x35, 0x38, 0x80, 0x7d, 0x3a,
  0xbd, 0x37, 0x86, 0x35, 0x5d, 0x43, 0x87, 0x3a, 0xe7, 0xd8, 0x87, 0x3a,
  0xb1, 0xc5, 0x86, 0x3a, 0x18, 0x00, 0x00, 0x00, 0x73, 0x65, 0x71, 0x75,
  0x65, 0x6e, 0x74, 0x69, 0x61, 0x6c, 0x2f, 0x63, 0x6f, 0x6e, 0x76, 0x32,
  0x64, 0x2f, 0x43, 0x6f, 0x6e, 0x76, 0x32, 0x44, 0x00, 0x00, 0x00, 0x00,
  0x04, 0x00, 0x00, 0x00, 0x20, 0x00, 0x00, 0x00, 0x03, 0x00, 0x00, 0x00,
  0x03, 0x00, 0x00, 0x00, 0x40, 0x00, 0x00, 0x00, 0x00, 0x00, 0x0e, 0x00,
  0x18, 0x00, 0x14, 0x00, 0x13, 0x00, 0x0c, 0x00, 0x08, 0x00, 0x04, 0x00,
  0x0e, 0x00, 0x00, 0x00, 0x20, 0x00, 0x00, 0x00, 0x40, 0x00, 0x00, 0x00,
  0x01, 0x00, 0x00, 0x00, 0x00, 0x00, 0x00, 0x09, 0x40, 0x00, 0x00, 0x00,
  0x0c, 0x00, 0x0c, 0x00, 0x00, 0x00, 0x00, 0x00, 0x08, 0x00, 0x04, 0x00,
  0x0c, 0x00, 0x00, 0x00, 0x08, 0x00, 0x00, 0x00, 0x14, 0x00, 0x00, 0x00,
  0x01, 0x00, 0x00, 0x00, 0x80, 0xff, 0xff, 0xff, 0xff, 0xff, 0xff, 0xff,
  0x00, 0x00, 0x00, 0x00, 0x01, 0x00, 0x00, 0x00, 0x81, 0x80, 0x80, 0x3b,
  0x07, 0x00, 0x00, 0x00, 0x69, 0x6e, 0x70, 0x75, 0x74, 0x5f, 0x31, 0x00,
  0x04, 0x00, 0x00, 0x00, 0x01, 0x00, 0x00, 0x00, 0x10, 0x00, 0x00, 0x00,
  0x10, 0x00, 0x00, 0x00, 0x40, 0x00, 0x00, 0x00, 0x01, 0x00, 0x00, 0x00,
  0x10, 0x00, 0x00, 0x00, 0x0c, 0x00, 0x10, 0x00, 0x0f, 0x00, 0x00, 0x00,
  0x08, 0x00, 0x04, 0x00, 0x0c, 0x00, 0x00, 0x00, 0x03, 0x00, 0x00, 0x00,
  0x03, 0x00, 0x00, 0x00, 0x00, 0x00, 0x00, 0x03
};
const int tflite_model_len = 3848;