alignas(8) const unsigned char tflite_model[] = {
  0x1c, 0x00, 0x00, 0x00, 0x00, 0x00, 0x00, 0x00, 0x14, 0x00, 0x20, 0x00,
  0x1c, 0x00, 0x18, 0x00, 0x14, 0x00, 0x10, 0x00, 0x0c, 0x00, 0x00, 0x00,
  0x08, 0x00, 0x04, 0x00, 0x14, 0x00, 0x00, 0x00, 0x1c, 0x00, 0x00, 0x00,
  0x1c, 0x00, 0x00, 0x00, 0x4c, 0x00, 0x00, 0x00, 0x40, 0x98, 0x00, 0x00,
  0x50, 0x98, 0x00, 0x00, 0xf4, 0x73, 0x01, 0x00, 0x03, 0x00, 0x00, 0x00,
  0x00, 0x00, 0x00, 0x00, 0x01, 0x00, 0x00, 0x00, 0x0c, 0x00, 0x00, 0x00,
  0x08, 0x00, 0x0c, 0x00, 0x08, 0x00, 0x04, 0x00, 0x08, 0x00, 0x00, 0x00,
  0x85, 0x00, 0x00, 0x00, 0x04, 0x00, 0x00, 0x00, 0x13, 0x00, 0x00, 0x00,
  0x6d, 0x69, 0x6e, 0x5f, 0x72, 0x75, 0x6e, 0x74, 0x69, 0x6d, 0x65, 0x5f,
  0x76, 0x65, 0x72, 0x73, 0x69, 0x6f, 0x6e, 0x00, 0x86, 0x00, 0x00, 0x00,
  0xf0, 0x97, 0x00, 0x00, 0xe8, 0x97, 0x00, 0x00, 0xd0, 0x97, 0x00, 0x00,
  0xb4, 0x8f, 0x00, 0x00, 0xac, 0x8e, 0x00, 0x00, 0x5c, 0x8e, 0x00, 0x00,
  0x0c, 0x8e, 0x00, 0x00, 0x88, 0x8c, 0x00, 0x00, 0x60, 0x8c, 0x00, 0x00,
  0x48, 0x8c, 0x00, 0x00, 0x30, 0x8c, 0x00, 0x00, 0x10, 0x8b, 0x00, 0x00,
  0x4c, 0x8a, 0x00, 0x00, 0xc4, 0x89, 0x00, 0x00, 0xb8, 0x88, 0x00, 0x00,
  0x2c, 0x83, 0x00, 0x00, 0xe8, 0x82, 0x00, 0x00, 0xc8, 0x82, 0x00, 0x00,
  0xa8, 0x82, 0x00, 0x00, 0xc4, 0x80, 0x00, 0x00, 0x24, 0x80, 0x00, 0x00,
  0x04, 0x80, 0x00, 0x00, 0x58, 0x7f, 0x00, 0x00, 0x98, 0x7a, 0x00, 0x00,
  0x48, 0x7a, 0x00, 0x00, 0x28, 0x7a, 0x00, 0x00, 0x08, 0x7a, 0x00, 0x00,
  0xf8, 0x73, 0x00, 0x00, 0x68, 0x72, 0x00, 0x00, 0x58, 0x60, 0x00, 0x00,
  0xc8, 0x5f, 0x00, 0x00, 0x38, 0x56, 0x00, 0x00, 0xdc, 0x55, 0x00, 0x00,
  0xb8, 0x55, 0x00, 0x00, 0x94, 0x55, 0x00, 0x00, 0x54, 0x54, 0x00, 0x00,
  0x04, 0x54, 0x00, 0x00, 0xcc, 0x4f, 0x00, 0x00, 0xc0, 0x4d, 0x00, 0x00,
  0xa0, 0x43, 0x00, 0x00, 0x48, 0x43, 0x00, 0x00, 0x24, 0x43, 0x00, 0x00,
  0x00, 0x43, 0x00, 0x00, 0x90, 0x3f, 0x00, 0x00, 0xc0, 0x3e, 0x00, 0x00,
  0x78, 0x23, 0x00, 0x00, 0xa8, 0x22, 0x00, 0x00, 0x38, 0x1f, 0x00, 0x00,
  0x04, 0x1f, 0x00, 0x00, 0xe8, 0x1e, 0x00, 0x00, 0xcc, 0x1e, 0x00, 0x00,
  0x0c, 0x1d, 0x00, 0x00, 0x3c, 0x1c, 0x00, 0x00, 0x20, 0x1c, 0x00, 0x00,
  0x9c, 0x1b, 0x00, 0x00, 0xd4, 0x18, 0x00, 0x00, 0xa0, 0x18, 0x00, 0x00,
  0x84, 0x18, 0x00, 0x00, 0x68, 0x18, 0x00, 0x00, 0x18, 0x16, 0x00, 0x00,
  0x08, 0x15, 0x00, 0x00, 0xec, 0x14, 0x00, 0x00, 0x34, 0x14, 0x00, 0x00,
  0x84, 0x0d, 0x00, 0x00, 0x34, 0x0d, 0x00, 0x00, 0x14, 0x0d, 0x00, 0x00,
  0xf4, 0x0c, 0x00, 0x00, 0x44, 0x09, 0x00, 0x00, 0x4c, 0x08, 0x00, 0x00,
  0x2c, 0x08, 0x00, 0x00, 0x84, 0x04, 0x00, 0x00, 0x34, 0x02, 0x00, 0x00,
  0x1c, 0x02, 0x00, 0x00, 0x08, 0x02, 0x00, 0x00, 0xf4, 0x01, 0x00, 0x00,
  0xec, 0x01, 0x00, 0x00, 0xe4, 0x01, 0x00, 0x00, 0xdc, 0x01, 0x00, 0x00,
  0xd4, 0x01, 0x00, 0x00, 0xcc, 0x01, 0x00, 0x00, 0xc4, 0x01, 0x00, 0x00,
  0xbc, 0x01, 0x00, 0x00, 0xb4, 0x01, 0x00, 0x00, 0xac, 0x01, 0x00, 0x00,
  0xa4, 0x01, 0x00, 0x00, 0x9c, 0x01, 0x00, 0x00, 0x94, 0x01, 0x00, 0x00,
  0x8c, 0x01, 0x00, 0x00, 0x84, 0x01, 0x00, 0x00, 0x7c, 0x01, 0x00, 0x00,
  0x74, 0x01, 0x00, 0x00, 0x6c, 0x01, 0x00, 0x00, 0x64, 0x01, 0x00, 0x00,
  0x5c, 0x01, 0x00, 0x00, 0x54, 0x01, 0x00, 0x00, 0x4c, 0x01, 0x00, 0x00,
  0x44, 0x01, 0x00, 0x00, 0x3c, 0x01, 0x00, 0x00, 0x34, 0x01, 0x00, 0x00,
  0x2c, 0x01, 0x00, 0x00, 0x24, 0x01, 0x00, 0x00, 0x1c, 0x01, 0x00, 0x00,
  0x14, 0x01, 0x00, 0x00, 0x0c, 0x01, 0x00, 0x00, 0x04, 0x01, 0x00, 0x00,
  0xfc, 0x00, 0x00, 0x00, 0xf4, 0x00, 0x00, 0x00, 0xec, 0x00, 0x00, 0x00,
  0xe4, 0x00, 0x00, 0x00, 0xdc, 0x00, 0x00, 0x00, 0xd4, 0x00, 0x00, 0x00,
  0xcc, 0x00, 0x00, 0x00, 0xc4, 0x00, 0x00, 0x00, 0xbc, 0x00, 0x00, 0x00,
  0xb4, 0x00, 0x00, 0x00, 0xac, 0x00, 0x00, 0x00, 0xa4, 0x00, 0x00, 0x00,
  0x9c, 0x00, 0x00, 0x00, 0x94, 0x00, 0x00, 0x00, 0x8c, 0x00, 0x00, 0x00,
  0x84, 0x00, 0x00, 0x00, 0x7c, 0x00, 0x00, 0x00, 0x74, 0x00, 0x00, 0x00,
  0x6c, 0x00, 0x00, 0x00, 0x64, 0x00, 0x00, 0x00, 0x5c, 0x00, 0x00, 0x00,
  0x54, 0x00, 0x00, 0x00, 0x4c, 0x00, 0x00, 0x00, 0x44, 0x00, 0x00, 0x00,
  0x3c, 0x00, 0x00, 0x00, 0x34, 0x00, 0x00, 0x00, 0x2c, 0x00, 0x00, 0x00,
  0x24, 0x00, 0x00, 0x00, 0x04, 0x00, 0x00, 0x00, 0x4a, 0x5e, 0xff, 0xff,
  0x04, 0x00, 0x00, 0x00, 0x10, 0x00, 0x00, 0x00, 0x31, 0x2e, 0x31, 0x34,
  0x2e, 0x30, 0x00, 0x00, 0x00, 0x00, 0x00, 0x00, 0x00, 0x00, 0x00, 0x00,
  0x60, 0x8f, 0xfe, 0xff, 0x64, 0x8f, 0xfe, 0xff, 0x68, 0x8f, 0xfe, 0xff,
  0x6c, 0x8f, 0xfe, 0xff, 0x70, 0x8f, 0xfe, 0xff, 0x74, 0x8f, 0xfe, 0xff,
  0x78, 0x8f, 0xfe, 0xff, 0x7c, 0x8f, 0xfe, 0xff, 0x80, 0x8f, 0xfe, 0xff,
  0x84, 0x8f, 0xfe, 0xff, 0x88, 0x8f, 0xfe, 0xff, 0x8c, 0x8f, 0xfe, 0xff,
  0x90, 0x8f, 0xfe, 0xff, 0x94, 0x8f, 0xfe, 0xff, 0x98, 0x8f, 0xfe, 0xff,
  0x9c, 0x8f, 0xfe, 0xff, 0xa0, 0x8f, 0xfe, 0xff, 0xa4, 0x8f, 0xfe, 0xff,
  0xa8, 0x8f, 0xfe, 0xff, 0xac, 0x8f, 0xfe, 0xff, 0xb0, 0x8f, 0xfe, 0xff,
  0xb4, 0x8f, 0xfe, 0xff, 0xb8, 0x8f, 0xfe, 0xff, 0xbc, 0x8f, 0xfe, 0xff,
  0xc0, 0x8f, 0xfe, 0xff, 0xc4, 0x8f, 0xfe, 0xff, 0xc8, 0x8f, 0xfe, 0xff,
  0xcc, 0x8f, 0xfe, 0xff, 0xd0, 0x8f, 0xfe, 0xff, 0xd4, 0x8f, 0xfe, 0xff,
  0xd8, 0x8f, 0xfe, 0xff, 0xdc, 0x8f, 0xfe, 0xff, 0xe0, 0x8f, 0xfe, 0xff,
  0xe4, 0x8f, 0xfe, 0xff, 0xe8, 0x8f, 0xfe, 0xff, 0xec, 0x8f, 0xfe, 0xff,
  0xf0, 0x8f, 0xfe, 0xff, 0xf4, 0x8f, 0xfe, 0xff, 0xf8, 0x8f, 0xfe, 0xff,
  0xfc, 0x8f, 0xfe, 0xff, 0x00, 0x90, 0xfe, 0xff, 0x04, 0x90, 0xfe, 0xff,
  0x08, 0x90, 0xfe, 0xff, 0x0c, 0x90, 0xfe, 0xff, 0x10, 0x90, 0xfe, 0xff,
  0x14, 0x90, 0xfe, 0xff, 0x18, 0x90, 0xfe, 0xff, 0x1c, 0x90, 0xfe, 0xff,
  0x20, 0x90, 0xfe, 0xff, 0x24, 0x90, 0xfe, 0xff, 0x28, 0x90, 0xfe, 0xff,
  0x2c, 0x90, 0xfe, 0xff, 0x30, 0x90, 0xfe, 0xff, 0x34, 0x90, 0xfe, 0xff,
  0x38, 0x90, 0xfe, 0xff, 0x3c, 0x90, 0xfe, 0xff, 0x40, 0x90, 0xfe, 0xff,
  0x44, 0x90, 0xfe, 0xff, 0x4e, 0x5f, 0xff, 0xff, 0x04, 0x00, 0x00, 0x00,
  0x02, 0x00, 0x00, 0x00, 0x80, 0x6b, 0x00, 0x00, 0x5e, 0x5f, 0xff, 0xff,
  0x04, 0x00, 0x00, 0x00, 0x02, 0x00, 0x00, 0x00, 0xef, 0x7f, 0x00, 0x00,
  0x6e, 0x5f, 0xff, 0xff, 0x04, 0x00, 0x00, 0x00, 0x08, 0x00, 0x00, 0x00,
  0x16, 0x23, 0x02, 0x00, 0x85, 0x21, 0x00, 0x00, 0x82, 0x5f, 0xff, 0xff,
  0x04, 0x00, 0x00, 0x00, 0x40, 0x02, 0x00, 0x00, 0x00, 0x00, 0x00, 0x00,
  0x00, 0x00, 0x00, 0x00, 0x00, 0x00, 0x00, 0x00, 0x00, 0x00, 0x00, 0x00,
  0x00, 0x00, 0x00, 0x00, 0x00, 0x00, 0x00, 0x00, 0x00, 0x00, 0x00, 0x00,
  0x00, 0x00, 0x00, 0x30, 0x00, 0x00, 0x00, 0x00, 0x00, 0x00, 0x00, 0x00,
  0x00, 0x00, 0x00, 0x00, 0x00, 0x00, 0x00, 0x00, 0x00, 0x00, 0x00, 0x00,
  0x00, 0x00, 0x00, 0x00, 0x00, 0x00, 0x00, 0x00, 0x00, 0x00, 0x00, 0x00,
  0x00, 0x00, 0x00, 0x00, 0x00, 0x00, 0x00, 0x00, 0x00, 0x00, 0x00, 0x00,
  0x00, 0x00, 0x00, 0x00, 0x00, 0x00, 0x00, 0x00, 0x00, 0x00, 0x00, 0x00,
  0x00, 0x00, 0x00, 0x00, 0x15, 0x00, 0x00, 0x00, 0x00, 0x00, 0x00, 0x00,
  0x00, 0x00, 0x00, 0x00, 0x00, 0x00, 0x00, 0x00, 0x00, 0x00, 0x00, 0x00,
  0x00, 0x00, 0x00, 0xc2, 0x00, 0x00, 0x00, 0x00, 0x00, 0x00, 0x00, 0x00,
  0x41, 0x00, 0x00, 0x00, 0x00, 0x00, 0x00, 0x00, 0x00, 0x00, 0x00, 0x00,
  0x00, 0x00, 0x00, 0x00, 0x00, 0x00, 0x00, 0x00, 0x00, 0x00, 0x00, 0x00,
  0x00, 0x00, 0x00, 0x00, 0x00, 0x00, 0x00, 0x00, 0x00, 0x00, 0x00, 0x00,
  0x00, 0x00, 0x00, 0x00, 0x00, 0x00, 0x00, 0x00, 0x00, 0x00, 0x00, 0x00,
  0x00, 0x3b, 0x00, 0x00, 0x00, 0x00, 0x00, 0x00, 0x00, 0x00, 0x00, 0x00,
  0x00, 0x00, 0x00, 0x00, 0x00, 0x00, 0x00, 0x00, 0x00, 0x00, 0x00, 0x00,
  0x00, 0x00, 0x00, 0x00, 0x00, 0x00, 0x00, 0x00, 0x00, 0x00, 0x00, 0x00,
  0x00, 0x00, 0x00, 0x00, 0x00, 0x00, 0x00, 0x00, 0x00, 0x00, 0x00, 0x00,
  0x00, 0x00, 0x00, 0x00, 0x00, 0x00, 0x00, 0x81, 0x00, 0x00, 0x00, 0x00,
  0x00, 0x00, 0x00, 0x00, 0x00, 0x00, 0x00, 0x00, 0x00, 0x00, 0x00, 0x00,
  0x00, 0x00, 0x00, 0x00, 0x00, 0x00, 0x00, 0x00, 0x00, 0x45, 0x00, 0x00,
  0x00, 0x00, 0x00, 0x00, 0x00, 0x00, 0x00, 0x00, 0x00, 0x00, 0x00, 0x00,
  0x00, 0x00, 0x00, 0x00, 0x00, 0x00, 0x00, 0x00, 0x00, 0x00, 0x00, 0x00,
  0x00, 0x00, 0x00, 0x00, 0x00, 0x00, 0x00, 0x00, 0x00, 0x00, 0x00, 0x00,
  0x00, 0x00, 0x00, 0x00, 0x00, 0x00, 0x00, 0x00, 0x00, 0x00, 0x00, 0x00,
  0x00, 0x00, 0x00, 0x00, 0x00, 0x00, 0x00, 0x00, 0x00, 0x00, 0x00, 0x00,
  0x00, 0x00, 0x00, 0x00, 0x00, 0x00, 0x00, 0x00, 0x00, 0x00, 0x00, 0x00,
  0x00, 0x00, 0x00, 0x00, 0x00, 0x00, 0x00, 0x00, 0x00, 0x00, 0x00, 0x00,
  0x00, 0x00, 0x00, 0x00, 0x00, 0x00, 0x00, 0x00, 0x00, 0x00, 0x00, 0x00,
  0x00, 0x00, 0x00, 0x00, 0x00, 0x00, 0x00, 0x00, 0x00, 0x00, 0x00, 0x00,
  0x00, 0x00, 0x00, 0x00, 0x00, 0x00, 0x00, 0x00, 0x00, 0x00, 0x00, 0x00,
  0x00, 0x00, 0x00, 0x00, 0xf5, 0x00, 0x00, 0x00, 0x00, 0x00, 0x00, 0x00,
  0x00, 0x00, 0x00, 0x00, 0x00, 0x00, 0x00, 0x00, 0x00, 0x00, 0x00, 0x00,
  0x00, 0x00, 0x00, 0xf1, 0x00, 0x00, 0x00, 0x00, 0x00, 0x00, 0x00, 0x00,
  0xf4, 0x00, 0x00, 0x00, 0x00, 0x00, 0x00, 0x00, 0x00, 0x00, 0x00, 0x00,
  0x00, 0x00, 0x00, 0x00, 0x00, 0x00, 0x00, 0x00, 0x00, 0x00, 0x00, 0x00,
  0x00, 0x00, 0x00, 0x00, 0x00, 0x00, 0x00, 0x00, 0x00, 0x00, 0x00, 0x00,
  0x00, 0x00, 0x00, 0x00, 0x00, 0x00, 0x00, 0x00, 0x00, 0x00, 0x00, 0x00,
  0x00, 0xff, 0x00, 0x00, 0x00, 0x00, 0x00, 0x00, 0x00, 0x00, 0x00, 0x00,
  0x00, 0x00, 0x00, 0x00, 0x00, 0x00, 0x00, 0x00, 0x00, 0x00, 0x00, 0x00,
  0x00, 0x00, 0x00, 0x00, 0x00, 0x00, 0x00, 0x00, 0x00, 0x00, 0x00, 0x00,
  0x00, 0x00, 0x00, 0x00, 0x00, 0x00, 0x00, 0x00, 0x00, 0x00, 0x00, 0x00,
  0x00, 0x00, 0x00, 0x00, 0x00, 0x00, 0x00, 0x7f, 0x00, 0x00, 0x00, 0x00,
  0x00, 0x00, 0x00, 0x00, 0x00, 0x00, 0x00, 0x00, 0x00, 0x00, 0x00, 0x00,
  0x00, 0x00, 0x00, 0x00, 0x00, 0x00, 0x00, 0x00, 0x00, 0x48, 0x00, 0x00,
  0x00, 0x00, 0x00, 0x00, 0x00, 0x00, 0x00, 0x00, 0x00, 0x00, 0x00, 0x00,
  0x00, 0x00, 0x00, 0x00, 0x00, 0x00, 0x00, 0x00, 0x00, 0x00, 0x00, 0x00,
  0x00, 0x00, 0x00, 0x00, 0x00, 0x00, 0x00, 0x00, 0xce, 0x61, 0xff, 0xff,
  0x04, 0x00, 0x00, 0x00, 0x98, 0x03, 0x00, 0x00, 0x2d, 0x29, 0x44, 0xff,
  0x21, 0x06, 0x33, 0xff, 0x69, 0x54, 0x44, 0xff, 0x10, 0xa3, 0x4d, 0xff,
  0x91, 0x65, 0x68, 0xff, 0xaa, 0xea, 0x27, 0xff, 0x55, 0x9f, 0x2c, 0xff,
  0x0a, 0xc1, 0x58, 0xff, 0xd4, 0x26, 0x30, 0xff, 0xb7, 0x86, 0x71, 0xff,
  0x4c, 0x02, 0xc0, 0xfe, 0x60, 0x10, 0x7f, 0xff, 0xed, 0xb0, 0x7a, 0xff,
  0xbd, 0x9e, 0x3c, 0xff, 0x61, 0x69, 0xb2, 0xff, 0x6f, 0x58, 0x9f, 0xff,
  0xca, 0xd8, 0x4a, 0xff, 0x48, 0x0b, 0x4d, 0xff, 0xe8, 0x60, 0x7f, 0xff,
  0xda, 0x3e, 0x58, 0xff, 0x86, 0x2d, 0xa3, 0xff, 0x5b, 0xe1, 0x83, 0xff,
  0x1c, 0x7a, 0x53, 0xff, 0x94, 0x20, 0xa6, 0xff, 0x5c, 0x0d, 0xac, 0xff,
  0x52, 0x94, 0x9d, 0xfe, 0x2e, 0x61, 0x9f, 0xff, 0x7e, 0x9c, 0x70, 0xff,
  0x94, 0xc0, 0xbf, 0xff, 0x26, 0x79, 0x86, 0xff, 0xba, 0xc3, 0x75, 0xff,
  0x4e, 0xb2, 0x8b, 0xff, 0xda, 0xc4, 0x92, 0xff, 0xcc, 0x96, 0xb8, 0xff,
  0x38, 0x92, 0xcb, 0x02, 0x59, 0x8d, 0xb8, 0xff, 0x74, 0x46, 0x9b, 0xff,
  0xf6, 0x6e, 0x98, 0xff, 0x20, 0x7e, 0xd0, 0xfe, 0x42, 0x26, 0x54, 0xff,
  0x9d, 0xc9, 0x68, 0xff, 0x98, 0xf0, 0xf1, 0xfe, 0xcd, 0x65, 0xa7, 0xff,
  0xe5, 0x6e, 0x9a, 0xff, 0xe1, 0xff, 0x85, 0xff, 0xa5, 0xf5, 0x7e, 0xff,
  0x79, 0xd8, 0x20, 0xff, 0x7a, 0x99, 0x90, 0xff, 0x7b, 0x1d, 0x01, 0xff,
  0x78, 0x6d, 0x7e, 0xff, 0xbd, 0x78, 0xc0, 0xff, 0x09, 0x8c, 0x6c, 0xff,
  0x6b, 0x5f, 0xca, 0xff, 0x5e, 0xd8, 0xe2, 0xfe, 0x5c, 0x13, 0xea, 0xfe,
  0x9f, 0xbd, 0xbf, 0xff, 0xa9, 0xce, 0x70, 0xff, 0x9c, 0x34, 0x88, 0x03,
  0x69, 0x51, 0xb4, 0xff, 0xb9, 0xd7, 0xbf, 0xff, 0x29, 0x4c, 0x81, 0xff,
  0x31, 0x19, 0x44, 0xff, 0x98, 0x7c, 0xaf, 0xff, 0xaa, 0x3a, 0x70, 0xff,
  0x87, 0xaa, 0x59, 0xff, 0x11, 0x89, 0xa8, 0xff, 0x70, 0x09, 0xec, 0xf7,
  0x13, 0x03, 0x90, 0xff, 0xf4, 0x3f, 0x8e, 0xff, 0x76, 0x70, 0x49, 0xff,
  0x01, 0x7a, 0xad, 0xff, 0x51, 0x96, 0x9e, 0xff, 0x7e, 0xed, 0xf2, 0xfe,
  0xd8, 0xea, 0xb2, 0xfd, 0x2e, 0xeb, 0xae, 0xff, 0x2b, 0x66, 0x52, 0xff,
  0xf7, 0xc6, 0x71, 0xff, 0xfb, 0x7c, 0x4c, 0xff, 0x57, 0xc2, 0x43, 0xff,
  0x49, 0x88, 0x77, 0xff, 0x88, 0x4e, 0xbb, 0xff, 0x1d, 0x4f, 0xc3, 0xff,
  0x02, 0x71, 0xad, 0xff, 0x5d, 0x34, 0x1f, 0xff, 0xb7, 0x08, 0x9f, 0xff,
  0xe1, 0x6a, 0x49, 0xff, 0x47, 0x8a, 0x27, 0xff, 0xb2, 0x9c, 0x8c, 0xff,
  0x31, 0x6a, 0x4c, 0xff, 0x48, 0x60, 0x12, 0xff, 0xe2, 0x82, 0xaa, 0xff,
  0x33, 0x30, 0xad, 0xff, 0x5c, 0x9d, 0x3c, 0xfe, 0xce, 0x67, 0x90, 0xff,
  0x88, 0x0e, 0x42, 0xff, 0xb0, 0x40, 0x91, 0xff, 0xb6, 0x90, 0xc2, 0xfe,
  0x35, 0x6c, 0x6a, 0xff, 0x31, 0x44, 0x3d, 0xff, 0x8d, 0x64, 0x89, 0xff,
  0xe2, 0xbb, 0xc5, 0xff, 0x3f, 0xf9, 0x9a, 0xff, 0x3c, 0x2c, 0x62, 0xff,
  0x6c, 0x25, 0x83, 0xff, 0x1e, 0xe0, 0xf9, 0xfe, 0x2b, 0xd1, 0xb3, 0xff,
  0x4e, 0x70, 0xb2, 0xff, 0x20, 0x8f, 0xa2, 0xff, 0xbe, 0x4b, 0xb1, 0xff,
  0x39, 0x2f, 0x58, 0xff, 0x20, 0x17, 0x5c, 0xff, 0x0c, 0x2d, 0xaf, 0xff,
  0x85, 0xf5, 0xc3, 0xff, 0x45, 0x57, 0x32, 0xff, 0xad, 0x9a, 0x40, 0xff,
  0x54, 0x04, 0x09, 0xfc, 0x3e, 0xff, 0xbf, 0xff, 0xc6, 0x7d, 0x3b, 0xff,
  0x2e, 0x27, 0x97, 0xff, 0x93, 0xe3, 0x5a, 0xff, 0x6b, 0xa7, 0x8c, 0xff,
  0x19, 0x5f, 0x7e, 0xff, 0x02, 0x35, 0x87, 0xff, 0xb7, 0xc4, 0x73, 0xff,
  0x79, 0xba, 0xbb, 0xff, 0x3c, 0x5b, 0x69, 0xff, 0x59, 0xf5, 0x79, 0xff,
  0x64, 0x5b, 0x16, 0xff, 0xe0, 0x40, 0xf9, 0xfe, 0x62, 0x91, 0x87, 0xff,
  0xfc, 0xad, 0xee, 0xfe, 0xb8, 0xbc, 0x8a, 0xff, 0x91, 0x41, 0x9f, 0xff,
  0xac, 0x01, 0x85, 0xff, 0xec, 0x44, 0x21, 0xff, 0xf6, 0xfb, 0xb4, 0xff,
  0x19, 0x42, 0x96, 0xff, 0xe0, 0xa0, 0xc3, 0xff, 0x4f, 0xe1, 0x76, 0xff,
  0x09, 0x29, 0x16, 0xff, 0x29, 0x6c, 0xbb, 0xff, 0x98, 0x5d, 0x56, 0xff,
  0x0e, 0x1f, 0x2a, 0xff, 0xd7, 0x36, 0x78, 0xff, 0xbc, 0x13, 0x99, 0xff,
  0x9c, 0x19, 0xc2, 0xff, 0xf5, 0x06, 0x45, 0xff, 0xba, 0x01, 0x97, 0xff,
  0x83, 0xe7, 0x8c, 0xff, 0x49, 0xd3, 0x07, 0xff, 0xb8, 0xce, 0x6d, 0xff,
  0x20, 0x81, 0xb0, 0xff, 0xdc, 0xdc, 0x6b, 0xff, 0xaf, 0x79, 0x84, 0xff,
  0x47, 0x25, 0xb3, 0xff, 0x27, 0x0f, 0x50, 0xff, 0x74, 0x0a, 0x4a, 0xff,
  0x3e, 0xf7, 0x15, 0xff, 0xf6, 0xd9, 0xb4, 0xff, 0x4f, 0xde, 0xa4, 0xff,
  0xd1, 0x26, 0x61, 0xff, 0x6a, 0x39, 0x62, 0xff, 0x87, 0xce, 0x31, 0xff,
  0x68, 0x84, 0xa2, 0xff, 0xcf, 0x30, 0xb0, 0xff, 0x6e, 0x59, 0x56, 0xff,
  0xc7, 0x2c, 0xbe, 0xff, 0x67, 0xef, 0x9e, 0xff, 0xde, 0x69, 0xee, 0xfe,
  0xf4, 0x2d, 0x8a, 0xfc, 0x9a, 0x31, 0xaf, 0xff, 0xfc, 0xda, 0x98, 0xff,
  0x20, 0x17, 0x4b, 0xff, 0x8f, 0x17, 0xb6, 0xff, 0x0b, 0x13, 0x6a, 0xff,
  0x46, 0x0c, 0x8e, 0xff, 0x4d, 0x30, 0x2b, 0xff, 0x64, 0x69, 0x9f, 0xff,
  0x77, 0x01, 0xbd, 0xff, 0xd8, 0x52, 0x80, 0xfe, 0xd2, 0x03, 0x78, 0xff,
  0xff, 0x0f, 0xad, 0xff, 0xae, 0xe6, 0x81, 0xff, 0x6f, 0xd0, 0x7f, 0xff,
  0x7e, 0x8f, 0xb1, 0xff, 0x75, 0xae, 0x8e, 0xff, 0x92, 0xa8, 0x84, 0xff,
  0x1c, 0xcc, 0x56, 0xff, 0x06, 0x00, 0x33, 0xff, 0x56, 0x03, 0x41, 0xff,
  0xc8, 0x7a, 0x81, 0xff, 0x57, 0x78, 0x73, 0xff, 0x71, 0x22, 0x98, 0xff,
  0x02, 0x59, 0x3b, 0xff, 0xc2, 0x07, 0x95, 0xff, 0xc6, 0x21, 0xff, 0xff,
  0x01, 0xc5, 0x90, 0xff, 0xb6, 0x86, 0xd1, 0xfe, 0x58, 0x49, 0xbf, 0xff,
  0xe6, 0x49, 0x7f, 0xff, 0xb4, 0x89, 0x20, 0xff, 0xc1, 0x07, 0x94, 0xff,
  0xa0, 0xc1, 0x31, 0xff, 0x28, 0xb2, 0xcb, 0xfe, 0xe3, 0x40, 0x2d, 0xff,
  0x61, 0x3c, 0xbe, 0xff, 0x00, 0x94, 0xbc, 0xff, 0xb4, 0xcf, 0x52, 0xff,
  0x53, 0x50, 0xa9, 0xff, 0x24, 0x70, 0x91, 0xff, 0x61, 0xa3, 0xca, 0xff,
  0xc8, 0xb4, 0x4e, 0xff, 0x63, 0x5b, 0x69, 0xff, 0xef, 0x15, 0xb0, 0xff,
  0xeb, 0x57, 0x50, 0xff, 0xb9, 0x39, 0x3c, 0xff, 0x1a, 0xb4, 0x55, 0xff,
  0x02, 0xb6, 0x9f, 0xff, 0x81, 0x5b, 0x9e, 0xff, 0x3e, 0x02, 0x23, 0xff,
  0x8b, 0x7e, 0x9b, 0xff, 0x5a, 0xfe, 0x2f, 0xff, 0x94, 0x7f, 0xfb, 0xfe,
  0x23, 0xef, 0x3e, 0xff, 0x81, 0x1b, 0xa6, 0xff, 0xa6, 0x16, 0x39, 0xff,
  0xf1, 0x4d, 0x35, 0xff, 0xa1, 0x56, 0x69, 0xff, 0xa8, 0xf3, 0xf9, 0xfe,
  0x94, 0x92, 0x86, 0xff, 0x72, 0x65, 0xff, 0xff, 0x04, 0x00, 0x00, 0x00,
  0x10, 0x00, 0x00, 0x00, 0x8c, 0x0f, 0x00, 0xf5, 0xfe, 0x2d, 0x7f, 0x00,
  0x00, 0xdf, 0x00, 0x0e, 0xde, 0xfa, 0x01, 0x00, 0x8e, 0x65, 0xff, 0xff,
  0x04, 0x00, 0x00, 0x00, 0xe8, 0x00, 0x00, 0x00, 0x14, 0xfb, 0x86, 0xff,
  0x39, 0x7d, 0xab, 0xff, 0x5d, 0x4e, 0xae, 0xff, 0xf1, 0x7c, 0xbd, 0xff,
  0x7a, 0xe2, 0xb9, 0xff, 0xa3, 0x28, 0x26, 0xff, 0x71, 0xf3, 0xa5, 0xff,
  0x9c, 0xa5, 0xa0, 0xfe, 0x13, 0x0d, 0x25, 0xff, 0x2c, 0x18, 0xcb, 0xff,
  0x18, 0x7d, 0x9a, 0xff, 0xa6, 0x72, 0xc0, 0xff, 0xca, 0x80, 0xdf, 0xff,
  0x49, 0xba, 0xd0, 0xff, 0x7a, 0xb6, 0x0e, 0xfe, 0x9d, 0xd4, 0xc5, 0xff,
  0x2c, 0xd8, 0xa9, 0xff, 0xdf, 0xab, 0x7d, 0xff, 0x6b, 0x0c, 0xbf, 0xff,
  0x1a, 0xb6, 0x13, 0xff, 0x44, 0x11, 0x68, 0xff, 0xc9, 0x57, 0x56, 0xff,
  0x6e, 0x0e, 0x85, 0xff, 0x73, 0x9d, 0xe4, 0xff, 0x89, 0xcb, 0x9c, 0xff,
  0x93, 0x0b, 0x5e, 0xff, 0x74, 0x5d, 0x82, 0xff, 0x52, 0xbf, 0xe8, 0xff,
  0x62, 0x97, 0x56, 0xff, 0xf4, 0xb3, 0xc0, 0xff, 0x0c, 0xa7, 0xa0, 0xfe,
  0x2a, 0x0f, 0x00, 0x00, 0xd2, 0x44, 0xae, 0xff, 0xba, 0xc5, 0xc0, 0xff,
  0x68, 0x4e, 0x6c, 0xff, 0x57, 0xb8, 0xc4, 0xff, 0xe6, 0x8f, 0xc0, 0xff,
  0xb1, 0x81, 0xc4, 0xff, 0xe7, 0x56, 0x7c, 0xff, 0x4b, 0xea, 0xb5, 0xff,
  0xab, 0x05, 0xcd, 0xff, 0x04, 0xb8, 0xb3, 0xff, 0xcf, 0x5d, 0xaa, 0xff,
  0xb8, 0x0d, 0xea, 0xff, 0x7a, 0x9b, 0xca, 0xff, 0x9e, 0xca, 0xdd, 0xff,
  0x42, 0xa2, 0xe6, 0xff, 0xc8, 0xae, 0xa2, 0xff, 0xab, 0x1b, 0x71, 0xff,
  0xed, 0x7b, 0x6e, 0xff, 0x71, 0xea, 0x73, 0xff, 0xe5, 0x6c, 0xe3, 0xff,
  0x83, 0xe8, 0x83, 0xff, 0x0c, 0x41, 0xb3, 0xff, 0xc6, 0x48, 0xd6, 0xff,
  0xbe, 0x1a, 0xd2, 0xff, 0x7b, 0x25, 0xd8, 0xff, 0x58, 0x4e, 0xee, 0xff,
  0x82, 0x66, 0xff, 0xff, 0x04, 0x00, 0x00, 0x00, 0xa0, 0x03, 0x00, 0x00,
  0xf6, 0x09, 0xf7, 0x13, 0x1d, 0x1d, 0x22, 0xf9, 0x08, 0xd4, 0xf7, 0xef,
  0x09, 0x04, 0x09, 0xe6, 0x20, 0x13, 0xf4, 0xc7, 0xea, 0x0c, 0xf7, 0x11,
  0x0c, 0xd6, 0xf9, 0xf2, 0xef, 0x11, 0x1a, 0x40, 0xe3, 0x06, 0xfc, 0x18,
  0xf8, 0xef, 0x0a, 0x11, 0x0f, 0xe6, 0x2a, 0x09, 0x0c, 0x0c, 0xef, 0x1d,
  0xf4, 0x0d, 0x09, 0x21, 0xfb, 0x11, 0x11, 0x0c, 0xf7, 0x13, 0xe3, 0x09,
  0x0a, 0xd6, 0xf6, 0xe6, 0xef, 0xf9, 0xee, 0xf8, 0x11, 0x20, 0x0a, 0xee,
  0x2c, 0x0a, 0x06, 0x01, 0x0c, 0xfa, 0x07, 0xf6, 0xf6, 0x09, 0x0c, 0xee,
  0x03, 0xef, 0xe6, 0x09, 0xf9, 0x13, 0x2a, 0x0f, 0xf8, 0x21, 0x18, 0x21,
  0x0c, 0xf3, 0xf9, 0xdf, 0x13, 0xef, 0x13, 0x07, 0x0a, 0xe6, 0xf9, 0xef,
  0xdf, 0xef, 0xf9, 0xfa, 0xe6, 0xf7, 0x09, 0x11, 0x0a, 0xe3, 0x11, 0x11,
  0x03, 0xdf, 0x03, 0xf6, 0xef, 0x11, 0x11, 0x20, 0xf2, 0xec, 0xfb, 0xf4,
  0x02, 0xf8, 0xf7, 0xea, 0x08, 0x21, 0xf4, 0xf9, 0xf7, 0x07, 0x09, 0x01,
  0xef, 0xf6, 0xf4, 0xfc, 0x0c, 0xde, 0x0d, 0x20, 0x09, 0x0c, 0x18, 0x07,
  0xad, 0x0a, 0xe3, 0x18, 0x0f, 0x02, 0xe6, 0xff, 0x01, 0x0c, 0x09, 0xf7,
  0x07, 0xe6, 0xda, 0x02, 0xf9, 0xfa, 0x0c, 0xf8, 0xe8, 0xe6, 0x18, 0x21,
  0x09, 0x02, 0x11, 0xf3, 0xf7, 0xef, 0x0e, 0x06, 0x08, 0x38, 0x11, 0xf9,
  0xff, 0x07, 0x09, 0x03, 0xf7, 0xfa, 0xf4, 0xd4, 0xfc, 0x0d, 0xf4, 0xfd,
  0x0e, 0xf9, 0x07, 0x16, 0xfc, 0xef, 0xe6, 0xc7, 0xf4, 0x10, 0x06, 0xe3,
  0xf9, 0xfa, 0xe3, 0x2c, 0xf7, 0xf4, 0xf7, 0x03, 0xef, 0xf8, 0x1d, 0xf8,
  0xf6, 0x40, 0x09, 0xf4, 0xf6, 0x09, 0xe3, 0xde, 0x09, 0x0a, 0xe0, 0x11,
  0x07, 0xfe, 0xdf, 0xf7, 0xf6, 0x11, 0x0a, 0x07, 0xef, 0xf7, 0xfd, 0xdf,
  0x0a, 0x1a, 0x07, 0x09, 0x1d, 0xe0, 0x15, 0x16, 0x13, 0x13, 0x15, 0xfb,
  0xd6, 0xe8, 0xfa, 0x0c, 0x0a, 0xf1, 0xef, 0x11, 0xf4, 0xef, 0xe8, 0x01,
  0x18, 0x0c, 0x0a, 0x0b, 0xf7, 0x11, 0x1a, 0x11, 0xf6, 0x04, 0xe3, 0xe0,
  0x00, 0x08, 0xf7, 0x11, 0x0c, 0x03, 0x1a, 0xef, 0x1a, 0xf7, 0x07, 0x09,
  0xc8, 0xf7, 0xef, 0x07, 0x1d, 0x12, 0xfe, 0x11, 0xef, 0xd6, 0xe3, 0xef,
  0x11, 0x09, 0x07, 0xfd, 0x11, 0x04, 0xf4, 0xf7, 0x1a, 0xef, 0xe6, 0x11,
  0x09, 0xfd, 0xef, 0xe3, 0xdf, 0xf6, 0x11, 0xf4, 0xef, 0x18, 0xf7, 0xf4,
  0x0c, 0xfd, 0x09, 0xe3, 0x0a, 0x11, 0xe0, 0x11, 0x0f, 0xf6, 0xf4, 0x08,
  0xfd, 0xea, 0xfe, 0x14, 0xf9, 0x0f, 0xf2, 0x0c, 0x0a, 0x40, 0x0c, 0x05,
  0x21, 0xea, 0x11, 0x09, 0xd6, 0xf9, 0xf6, 0x07, 0xf4, 0xef, 0x1b, 0x1d,
  0xf9, 0x2a, 0x02, 0xe3, 0x11, 0x09, 0xf8, 0x07, 0x22, 0xf7, 0x07, 0x0a,
  0x09, 0xef, 0xf9, 0xfb, 0x04, 0xff, 0xe3, 0xf1, 0x08, 0x1a, 0x21, 0xee,
  0xf9, 0x26, 0x08, 0xed, 0xe3, 0x03, 0xf4, 0x09, 0xfe, 0x07, 0xc0, 0x11,
  0x20, 0xf9, 0xf9, 0xf7, 0xe0, 0xef, 0x11, 0xf7, 0xf7, 0x11, 0xef, 0xfc,
  0x17, 0x11, 0x2c, 0x11, 0xe3, 0x13, 0x1a, 0xf8, 0xfb, 0x02, 0x07, 0x09,
  0x0c, 0x0b, 0xf7, 0xf4, 0x0c, 0xef, 0xf7, 0x11, 0xe6, 0xef, 0x09, 0xf9,
  0xe6, 0xe3, 0x11, 0xfc, 0xfa, 0x39, 0xfc, 0x11, 0xc8, 0x08, 0x1a, 0x0a,
  0x06, 0xf9, 0xe6, 0x09, 0xef, 0x04, 0x1d, 0xef, 0xd4, 0x1d, 0xea, 0x02,
  0xf6, 0xdf, 0xf6, 0xef, 0xe3, 0x1d, 0x18, 0x21, 0x07, 0xda, 0x17, 0x11,
  0xd4, 0x21, 0xfe, 0x1b, 0xee, 0x0a, 0x21, 0x1d, 0x07, 0xe3, 0x11, 0x09,
  0x09, 0x03, 0xf9, 0xf7, 0xf6, 0xf1, 0x00, 0x0c, 0x3c, 0xf6, 0x81, 0x00,
  0x00, 0x1f, 0x00, 0xff, 0x0a, 0xb6, 0xff, 0x00, 0x09, 0xf4, 0xf4, 0xee,
  0xf4, 0xe3, 0xe3, 0x0c, 0x1a, 0xe6, 0x22, 0x1d, 0xfe, 0x11, 0xef, 0xef,
  0x0a, 0xed, 0x0c, 0xf8, 0xf5, 0x04, 0x02, 0x0a, 0x02, 0xf7, 0x11, 0x02,
  0x18, 0xe6, 0xf8, 0x03, 0x18, 0xde, 0xef, 0x11, 0x1d, 0xdf, 0x18, 0x0f,
  0xe3, 0x1d, 0xfb, 0x08, 0xf2, 0xef, 0xf4, 0xfe, 0x21, 0xf4, 0x0c, 0x07,
  0xe0, 0xef, 0x21, 0xef, 0xe3, 0xd4, 0xf9, 0x09, 0xf9, 0x16, 0x0e, 0x16,
  0xdf, 0xde, 0xef, 0x1d, 0xe6, 0xda, 0xf9, 0xf4, 0x02, 0xef, 0xe0, 0xdf,
  0xf7, 0x2c, 0x07, 0x09, 0xf6, 0x0d, 0x2c, 0xf4, 0x40, 0xfc, 0x0c, 0x01,
  0x1a, 0xe8, 0xef, 0xe6, 0x2c, 0xe0, 0x07, 0xfd, 0x21, 0xff, 0x03, 0x0f,
  0xf6, 0x09, 0xe6, 0xef, 0x00, 0x0c, 0x0c, 0x1a, 0x09, 0xef, 0x2a, 0xf9,
  0x11, 0xee, 0x13, 0xd4, 0x11, 0x09, 0xef, 0xf8, 0x07, 0x1a, 0xed, 0x09,
  0xf9, 0xf4, 0x16, 0x21, 0x06, 0x0a, 0xf9, 0xf6, 0x0e, 0xc7, 0xef, 0xef,
  0x11, 0x0a, 0xf9, 0xed, 0xdf, 0xfe, 0xe3, 0xef, 0x07, 0xf9, 0x0c, 0xdf,
  0x11, 0x1a, 0x09, 0xef, 0xf7, 0x11, 0xf9, 0xf9, 0xef, 0x18, 0xf4, 0xf9,
  0xf8, 0x12, 0xff, 0xe6, 0xf9, 0xd4, 0x07, 0x0a, 0xf7, 0x12, 0x11, 0x0f,
  0xe3, 0xe8, 0xf7, 0xf9, 0x11, 0xe6, 0x11, 0xe3, 0xf9, 0xf8, 0xef, 0xf7,
  0x00, 0x09, 0xf3, 0xe3, 0xf9, 0xef, 0x00, 0x09, 0x0c, 0xf7, 0xfe, 0xe5,
  0xf7, 0xf9, 0xef, 0xf6, 0x11, 0xf6, 0xf6, 0x2c, 0xfe, 0x18, 0x11, 0x20,
  0x13, 0x05, 0xf3, 0xef, 0x16, 0xf7, 0x16, 0x0c, 0xf7, 0xef, 0xfd, 0xe3,
  0xfd, 0x11, 0xf6, 0xef, 0x11, 0xf6, 0xfc, 0x0c, 0xf7, 0xf7, 0xfa, 0xef,
  0x0c, 0x09, 0xef, 0xed, 0x0f, 0xde, 0xf7, 0xfb, 0xe3, 0x0c, 0xe3, 0x22,
  0xf9, 0x11, 0xec, 0xfd, 0x11, 0xfe, 0x11, 0x09, 0xf7, 0xef, 0xf1, 0xfe,
  0xf6, 0xf6, 0x07, 0xef, 0xd4, 0xe8, 0xef, 0x13, 0xe6, 0xe3, 0x01, 0xeb,
  0x1d, 0xf7, 0xfd, 0xf5, 0xc7, 0xf7, 0x11, 0xef, 0xf7, 0x11, 0xee, 0x03,
  0xe3, 0xfc, 0xf4, 0x02, 0xf7, 0x11, 0xe3, 0xe5, 0xc7, 0xf2, 0xf2, 0xdf,
  0xd4, 0x09, 0x21, 0x16, 0xf9, 0x39, 0xf7, 0x1d, 0x17, 0xf9, 0xef, 0xea,
  0xe3, 0x11, 0xe3, 0xf4, 0x09, 0x1b, 0xf7, 0x11, 0xef, 0xf7, 0xf7, 0x22,
  0x11, 0x11, 0x07, 0xea, 0xef, 0x11, 0x10, 0xef, 0x05, 0x20, 0xef, 0xef,
  0x11, 0xe8, 0xf7, 0x1a, 0x21, 0x11, 0xf7, 0xef, 0x01, 0xef, 0x09, 0xde,
  0x11, 0xfe, 0xf1, 0xf4, 0xf7, 0x07, 0x16, 0x0a, 0xed, 0x2a, 0xef, 0x26,
  0xe3, 0xe3, 0xef, 0xf7, 0x06, 0x08, 0x16, 0x09, 0xf9, 0x0c, 0xef, 0xf4,
  0xf7, 0x1a, 0xf7, 0x02, 0x08, 0x07, 0x0a, 0xe3, 0xef, 0x0c, 0x07, 0xf4,
  0x07, 0x11, 0x0a, 0xe6, 0xe6, 0xf6, 0x11, 0xf4, 0xf7, 0xf7, 0x03, 0x0a,
  0xf7, 0xf4, 0xef, 0xef, 0xef, 0x11, 0xe6, 0x07, 0x09, 0xf4, 0xf9, 0xd6,
  0xf7, 0x1a, 0xed, 0xf6, 0xef, 0xef, 0x11, 0xfc, 0x2c, 0x09, 0xf7, 0xf7,
  0xe6, 0x1a, 0xf4, 0x11, 0x2e, 0x6a, 0xff, 0xff, 0x04, 0x00, 0x00, 0x00,
  0x10, 0x00, 0x00, 0x00, 0x50, 0x69, 0x7d, 0x7f, 0x79, 0x18, 0x80, 0x7d,
  0x7d, 0x7e, 0x7d, 0x77, 0x7d, 0x36, 0x7d, 0x7a, 0x4a, 0x6a, 0xff, 0xff,
  0x04, 0x00, 0x00, 0x00, 0x10, 0x00, 0x00, 0x00, 0x9d, 0xa7, 0x72, 0x44,
  0xf3, 0x8d, 0xa2, 0x3b, 0x78, 0xe5, 0x56, 0xd7, 0xa0, 0xb4, 0x7f, 0x81,
  0x66, 0x6a, 0xff, 0xff, 0x04, 0x00, 0x00, 0x00, 0x40, 0x00, 0x00, 0x00,
  0xf6, 0xbb, 0x00, 0x00, 0xff, 0x56, 0x00, 0x00, 0x04, 0x50, 0xe9, 0xfe,
  0x6a, 0xb8, 0xfd, 0xff, 0x2d, 0x27, 0x00, 0x00, 0x07, 0xac, 0x03, 0x00,
  0x74, 0x67, 0x05, 0x00, 0x27, 0x07, 0x00, 0xff, 0x22, 0x46, 0x3b, 0xff,
  0x65, 0xa1, 0xfd, 0xff, 0x36, 0xd7, 0xcf, 0xfe, 0x1a, 0x05, 0xff, 0xff,
  0xee, 0x11, 0xff, 0xff, 0x58, 0xbb, 0xff, 0xff, 0x78, 0x27, 0xc6, 0xfd,
  0xf0, 0xd0, 0x5c, 0x0e, 0xb2, 0x6a, 0xff, 0xff, 0x04, 0x00, 0x00, 0x00,
  0xa0, 0x06, 0x00, 0x00, 0x00, 0x00, 0x00, 0x00, 0x00, 0x00, 0x00, 0x00,
  0x00, 0x00, 0x00, 0x00, 0x00, 0x00, 0x00, 0x00, 0x00, 0x00, 0x00, 0x00,
  0x00, 0x00, 0x00, 0x00, 0x00, 0x00, 0x00, 0x00, 0x00, 0x00, 0x00, 0x00,
  0x00, 0x00, 0x00, 0x00, 0x00, 0x00, 0x00, 0x00, 0x00, 0x00, 0x00, 0x00,
  0x00, 0x00, 0x00, 0x00, 0x00, 0x00, 0x00, 0x00, 0x00, 0x00, 0x00, 0x00,
  0x00, 0x00, 0x00, 0x00, 0x00, 0x00, 0x00, 0x00, 0x00, 0x00, 0x1f, 0x00,
  0x00, 0x3e, 0x00, 0x00, 0x00, 0x00, 0x06, 0x00, 0x00, 0x00, 0x00, 0x00,
  0x00, 0x00, 0x00, 0x00, 0x00, 0x00, 0x00, 0x00, 0x00, 0x00, 0x00, 0x00,
  0x00, 0x00, 0x00, 0x00, 0x00, 0x01, 0x00, 0x00, 0x00, 0x00, 0x00, 0x00,
  0x81, 0x00, 0x00, 0x00, 0x00, 0x00, 0x00, 0x00, 0x00, 0x00, 0x00, 0x00,
  0x00, 0x00, 0x00, 0x00, 0x00, 0x00, 0x00, 0x00, 0x00, 0x00, 0x00, 0x00,
  0x00, 0x00, 0x00, 0x00, 0x00, 0x00, 0x00, 0x00, 0x00, 0x00, 0x00, 0x00,
  0x00, 0x00, 0x00, 0x00, 0x00, 0x00, 0x00, 0x00, 0x00, 0x00, 0x00, 0x00,
  0x00, 0x00, 0x00, 0x00, 0x00, 0x00, 0x00, 0x00, 0x00, 0x00, 0x00, 0x00,
  0x00, 0x00, 0x00, 0x00, 0x00, 0x00, 0x00, 0x00, 0xcf, 0x00, 0x00, 0xbd,
  0x00, 0x00, 0x00, 0x00, 0x81, 0x00, 0x00, 0x00, 0x00, 0x00, 0x00, 0x00,
  0x00, 0x00, 0x00, 0x00, 0x00, 0x00, 0x00, 0x00, 0x00, 0x00, 0x00, 0x00,
  0x00, 0x00, 0x00, 0x4f, 0x00, 0x00, 0x00, 0x00, 0x00, 0x00, 0x7b, 0x00,
  0xc0, 0xf4, 0x1a, 0x20, 0xde, 0xfa, 0xfe, 0xe3, 0x08, 0xdf, 0x07, 0x06,
  0xef, 0x1a, 0xdf, 0x01, 0x11, 0xf6, 0xc8, 0x04, 0x0c, 0x0f, 0xfc, 0x21,
  0xf7, 0x13, 0xf7, 0x01, 0xef, 0xed, 0xdf, 0x13, 0x15, 0x13, 0xfe, 0x09,
  0x11, 0x11, 0xf4, 0xdf, 0x40, 0xf9, 0x16, 0x09, 0xf7, 0x04, 0xee, 0x0c,
  0xe6, 0xf6, 0x0c, 0x07, 0x03, 0xef, 0x0a, 0xe6, 0x08, 0x1a, 0x13, 0x11,
  0xc0, 0x18, 0xfa, 0x2a, 0xf7, 0x03, 0x22, 0xf0, 0x16, 0xf7, 0xc7, 0x08,
  0x09, 0xd4, 0x04, 0x04, 0xf1, 0x11, 0xf7, 0xf4, 0x0f, 0xef, 0xda, 0x09,
  0x14, 0x09, 0xf7, 0xef, 0xc8, 0x21, 0xf7, 0x09, 0xdf, 0x21, 0xea, 0xf7,
  0x0a, 0xf4, 0x11, 0xd6, 0xfb, 0xef, 0xf7, 0xfd, 0xd4, 0xfb, 0x00, 0x00,
  0x00, 0x00, 0x00, 0x00, 0x00, 0x00, 0x00, 0x00, 0x00, 0x00, 0x00, 0x00,
  0x00, 0x00, 0x00, 0x00, 0x00, 0x00, 0x00, 0x00, 0x00, 0x00, 0x00, 0x00,
  0x00, 0x00, 0x00, 0x00, 0x00, 0x00, 0x00, 0x00, 0x00, 0x00, 0x00, 0x00,
  0x00, 0x00, 0x00, 0x00, 0x00, 0x00, 0x00, 0x00, 0x00, 0x00, 0x00, 0x00,
  0x00, 0x00, 0x00, 0x00, 0x00, 0x00, 0x00, 0x00, 0x00, 0x00, 0x00, 0x00,
  0x00, 0x00, 0x00, 0x00, 0x81, 0x00, 0x00, 0x77, 0x00, 0x00, 0x00, 0x00,
  0xfb, 0x00, 0x00, 0x00, 0x00, 0x00, 0x00, 0x00, 0x00, 0x00, 0x00, 0x00,
  0x00, 0x00, 0x00, 0x00, 0x00, 0x00, 0x00, 0x00, 0x00, 0x00, 0x00, 0x91,
  0x00, 0x00, 0x00, 0x00, 0x00, 0x00, 0x27, 0x00, 0x00, 0x00, 0x00, 0x00,
  0x00, 0x00, 0x00, 0x00, 0x00, 0x00, 0x00, 0x00, 0x00, 0x00, 0x00, 0x00,
  0x00, 0x00, 0x00, 0x00, 0x00, 0x00, 0x00, 0x00, 0x00, 0x00, 0x00, 0x00,
  0x00, 0x00, 0x00, 0x00, 0x00, 0x00, 0x00, 0x00, 0x00, 0x00, 0x00, 0x00,
  0x00, 0x00, 0x00, 0x00, 0x00, 0x00, 0x00, 0x00, 0x00, 0x00, 0x00, 0x00,
  0x00, 0x00, 0x00, 0x00, 0x00, 0x00, 0x00, 0x00, 0x00, 0x00, 0x00, 0x00,
  0x00, 0x00, 0x81, 0x00, 0x00, 0x32, 0x00, 0x00, 0x00, 0x00, 0xf2, 0x00,
  0x00, 0x00, 0x00, 0x00, 0x00, 0x00, 0x00, 0x00, 0x00, 0x00, 0x00, 0x00,
  0x00, 0x00, 0x00, 0x00, 0x00, 0x00, 0x00, 0x00, 0x00, 0xe8, 0x00, 0x00,
  0x00, 0x00, 0x00, 0x00, 0xd4, 0x00, 0x00, 0x00, 0x00, 0x00, 0x00, 0x00,
  0x00, 0x00, 0x00, 0x00, 0x00, 0x00, 0x00, 0x00, 0x00, 0x00, 0x00, 0x00,
  0x00, 0x00, 0x00, 0x00, 0x00, 0x00, 0x00, 0x00, 0x00, 0x00, 0x00, 0x00,
  0x00, 0x00, 0x00, 0x00, 0x00, 0x00, 0x00, 0x00, 0x00, 0x00, 0x00, 0x00,
  0x00, 0x00, 0x00, 0x00, 0x00, 0x00, 0x00, 0x00, 0x00, 0x00, 0x00, 0x00,
  0x00, 0x00, 0x00, 0x00, 0x00, 0x00, 0x00, 0x00, 0x00, 0x00, 0x00, 0x00,
  0x38, 0x00, 0x00, 0xf7, 0x00, 0x00, 0x00, 0x00, 0x7f, 0x00, 0x00, 0x00,
  0x00, 0x00, 0x00, 0x00, 0x00, 0x00, 0x00, 0x00, 0x00, 0x00, 0x00, 0x00,
  0x00, 0x00, 0x00, 0x00, 0x00, 0x00, 0x00, 0xa9, 0x00, 0x00, 0x00, 0x00,
  0x00, 0x00, 0xec, 0x00, 0x00, 0x00, 0x00, 0x00, 0x00, 0x00, 0x00, 0x00,
  0x00, 0x00, 0x00, 0x00, 0x00, 0x00, 0x00, 0x00, 0x00, 0x00, 0x00, 0x00,
  0x00, 0x00, 0x00, 0x00, 0x00, 0x00, 0x00, 0x00, 0x00, 0x00, 0x00, 0x00,
  0x00, 0x00, 0x00, 0x00, 0x00, 0x00, 0x00, 0x00, 0x00, 0x00, 0x00, 0x00,
  0x00, 0x00, 0x00, 0x00, 0x00, 0x00, 0x00, 0x00, 0x00, 0x00, 0x00, 0x00,
  0x00, 0x00, 0x00, 0x00, 0x00, 0x00, 0x00, 0x00, 0x00, 0x00, 0x7e, 0x00,
  0x00, 0x7f, 0x00, 0x00, 0x00, 0x00, 0xce, 0x00, 0x00, 0x00, 0x00, 0x00,
  0x00, 0x00, 0x00, 0x00, 0x00, 0x00, 0x00, 0x00, 0x00, 0x00, 0x00, 0x00,
  0x00, 0x00, 0x00, 0x00, 0x00, 0x9f, 0x00, 0x00, 0x00, 0x00, 0x00, 0x00,
  0x26, 0x00, 0x11, 0xe8, 0x11, 0xe5, 0x0c, 0x07, 0xf7, 0xfc, 0xef, 0x1d,
  0xf4, 0x0c, 0x04, 0xf9, 0x1d, 0xef, 0x1d, 0x0c, 0x06, 0x03, 0x08, 0x09,
  0x0f, 0x2c, 0xfa, 0xef, 0x04, 0xf7, 0x53, 0xf9, 0x01, 0xec, 0xf3, 0x05,
  0x0f, 0xef, 0x0a, 0x0f, 0x11, 0xef, 0x0c, 0x0c, 0xef, 0x0a, 0xf6, 0x0a,
  0x0c, 0x09, 0x0c, 0xd6, 0x1d, 0x09, 0xf8, 0x0a, 0x09, 0x1d, 0xdf, 0xf2,
  0x11, 0xfb, 0x11, 0xe3, 0xf7, 0xfa, 0xfd, 0xfc, 0x09, 0xf6, 0x04, 0xc7,
  0x1d, 0x09, 0x02, 0x11, 0xdf, 0x11, 0xf4, 0xef, 0x38, 0xfe, 0x09, 0x09,
  0xf7, 0xf1, 0xdf, 0x16, 0x1a, 0xff, 0x18, 0x10, 0xfd, 0xf6, 0xfc, 0x04,
  0xde, 0x02, 0x0c, 0x09, 0x1a, 0xe6, 0xf6, 0x20, 0xfe, 0xef, 0xf9, 0xdf,
  0xe3, 0xf4, 0x09, 0x09, 0xf9, 0xe6, 0x09, 0xfe, 0x40, 0x0f, 0x09, 0x01,
  0x18, 0x09, 0xef, 0xf6, 0x11, 0x38, 0x11, 0xef, 0x09, 0xf6, 0x0a, 0x26,
  0xf2, 0x07, 0xe0, 0xee, 0xe3, 0xf4, 0xef, 0x26, 0x11, 0xfd, 0x38, 0xe8,
  0xff, 0x11, 0xf4, 0xeb, 0x0f, 0x0f, 0x08, 0xf1, 0xed, 0x0a, 0x1a, 0x07,
  0xdf, 0xde, 0x07, 0x0a, 0x1d, 0x1a, 0x07, 0x03, 0xfa, 0xf7, 0x07, 0xd4,
  0x39, 0x0c, 0xe3, 0x11, 0x0a, 0xea, 0x1a, 0xf9, 0x11, 0x0a, 0x18, 0x18,
  0x11, 0x11, 0x16, 0xf0, 0x11, 0x0c, 0x01, 0x0b, 0x1d, 0xef, 0xc0, 0x38,
  0x21, 0x0e, 0xef, 0xc0, 0xf4, 0xda, 0xf1, 0xe3, 0xe8, 0xff, 0xfe, 0x09,
  0x07, 0x0c, 0x09, 0xff, 0xef, 0x21, 0x11, 0xf9, 0x09, 0xf2, 0x00, 0x00,
  0x00, 0x00, 0x00, 0x00, 0x00, 0x00, 0x00, 0x00, 0x00, 0x00, 0x00, 0x00,
  0x00, 0x00, 0x00, 0x00, 0x00, 0x00, 0x00, 0x00, 0x00, 0x00, 0x00, 0x00,
  0x00, 0x00, 0x00, 0x00, 0x00, 0x00, 0x00, 0x00, 0x00, 0x00, 0x00, 0x00,
  0x00, 0x00, 0x00, 0x00, 0x00, 0x00, 0x00, 0x00, 0x00, 0x00, 0x00, 0x00,
  0x00, 0x00, 0x00, 0x00, 0x00, 0x00, 0x00, 0x00, 0x00, 0x00, 0x00, 0x00,
  0x00, 0x00, 0x00, 0x00, 0xe6, 0x00, 0x00, 0x71, 0x00, 0x00, 0x00, 0x00,
  0x81, 0x00, 0x00, 0x00, 0x00, 0x00, 0x00, 0x00, 0x00, 0x00, 0x00, 0x00,
  0x00, 0x00, 0x00, 0x00, 0x00, 0x00, 0x00, 0x00, 0x00, 0x00, 0x00, 0x4b,
  0x00, 0x00, 0x00, 0x00, 0x00, 0x00, 0xd5, 0x00, 0x18, 0xd4, 0x21, 0x18,
  0x39, 0x11, 0xef, 0x01, 0x1d, 0xe5, 0x0d, 0x08, 0xe3, 0x11, 0x0c, 0x13,
  0x11, 0xef, 0xf9, 0x09, 0xed, 0x1a, 0x09, 0xfb, 0x09, 0x01, 0x26, 0xf4,
  0xef, 0x09, 0xf6, 0x0c, 0xf6, 0xe8, 0xf4, 0x02, 0xef, 0x11, 0x1d, 0x18,
  0x11, 0xff, 0xfd, 0xf7, 0x0f, 0xf6, 0x0c, 0x2c, 0xfc, 0x01, 0x18, 0xf7,
  0xe3, 0xea, 0x11, 0xf4, 0x02, 0xea, 0xef, 0x0c, 0xde, 0x05, 0xef, 0x26,
  0xe8, 0xe3, 0xdf, 0x11, 0xe3, 0xea, 0xfd, 0xc0, 0xf7, 0xf4, 0xef, 0x07,
  0x03, 0x1a, 0xee, 0xd6, 0xf4, 0xc7, 0x11, 0xff, 0x06, 0xf1, 0x1d, 0xf4,
  0xd6, 0xf1, 0xea, 0xef, 0xf7, 0xf7, 0xe8, 0xde, 0x13, 0xe6, 0x0a, 0x18,
  0xdf, 0x0c, 0x0c, 0xf9, 0xc7, 0x0a, 0x00, 0x00, 0x00, 0x00, 0x00, 0x00,
  0x00, 0x00, 0x00, 0x00, 0x00, 0x00, 0x00, 0x00, 0x00, 0x00, 0x00, 0x00,
  0x00, 0x00, 0x00, 0x00, 0x00, 0x00, 0x00, 0x00, 0x00, 0x00, 0x00, 0x00,
  0x00, 0x00, 0x00, 0x00, 0x00, 0x00, 0x00, 0x00, 0x00, 0x00, 0x00, 0x00,
  0x00, 0x00, 0x00, 0x00, 0x00, 0x00, 0x00, 0x00, 0x00, 0x00, 0x00, 0x00,
  0x00, 0x00, 0x00, 0x00, 0x00, 0x00, 0x00, 0x00, 0x00, 0x00, 0x00, 0x00,
  0x7f, 0x00, 0x00, 0xb7, 0x00, 0x00, 0x00, 0x00, 0xba, 0x00, 0x00, 0x00,
  0x00, 0x00, 0x00, 0x00, 0x00, 0x00, 0x00, 0x00, 0x00, 0x00, 0x00, 0x00,
  0x00, 0x00, 0x00, 0x00, 0x00, 0x00, 0x00, 0x6c, 0x00, 0x00, 0x00, 0x00,
  0x00, 0x00, 0x3e, 0x00, 0x00, 0x00, 0x00, 0x00, 0x00, 0x00, 0x00, 0x00,
  0x00, 0x00, 0x00, 0x00, 0x00, 0x00, 0x00, 0x00, 0x00, 0x00, 0x00, 0x00,
  0x00, 0x00, 0x00, 0x00, 0x00, 0x00, 0x00, 0x00, 0x00, 0x00, 0x00, 0x00,
  0x00, 0x00, 0x00, 0x00, 0x00, 0x00, 0x00, 0x00, 0x00, 0x00, 0x00, 0x00,
  0x00, 0x00, 0x00, 0x00, 0x00, 0x00, 0x00, 0x00, 0x00, 0x00, 0x00, 0x00,
  0x00, 0x00, 0x00, 0x00, 0x00, 0x00, 0x00, 0x00, 0x00, 0x00, 0x4b, 0x00,
  0x00, 0x7f, 0x00, 0x00, 0x00, 0x00, 0x90, 0x00, 0x00, 0x00, 0x00, 0x00,
  0x00, 0x00, 0x00, 0x00, 0x00, 0x00, 0x00, 0x00, 0x00, 0x00, 0x00, 0x00,
  0x00, 0x00, 0x00, 0x00, 0x00, 0x00, 0x00, 0x00, 0x00, 0x00, 0x00, 0x00,
  0xed, 0x00, 0x00, 0x00, 0x00, 0x00, 0x00, 0x00, 0x00, 0x00, 0x00, 0x00,
  0x00, 0x00, 0x00, 0x00, 0x00, 0x00, 0x00, 0x00, 0x00, 0x00, 0x00, 0x00,
  0x00, 0x00, 0x00, 0x00, 0x00, 0x00, 0x00, 0x00, 0x00, 0x00, 0x00, 0x00,
  0x00, 0x00, 0x00, 0x00, 0x00, 0x00, 0x00, 0x00, 0x00, 0x00, 0x00, 0x00,
  0x00, 0x00, 0x00, 0x00, 0x00, 0x00, 0x00, 0x00, 0x00, 0x00, 0x00, 0x00,
  0x00, 0x00, 0x00, 0x00, 0x00, 0x00, 0x00, 0x00, 0x12, 0x00, 0x00, 0x1d,
  0x00, 0x00, 0x00, 0x00, 0x0d, 0x00, 0x00, 0x00, 0x00, 0x00, 0x00, 0x00,
  0x00, 0x00, 0x00, 0x00, 0x00, 0x00, 0x00, 0x00, 0x00, 0x00, 0x00, 0x00,
  0x00, 0x00, 0x00, 0x7f, 0x00, 0x00, 0x00, 0x00, 0x00, 0x00, 0x0c, 0x00,
  0xe3, 0xed, 0x18, 0xed, 0xfe, 0xe6, 0xf4, 0xe3, 0x02, 0xf7, 0x1d, 0x1a,
  0xe0, 0xef, 0x1b, 0x09, 0x11, 0xdf, 0xf9, 0x0c, 0x22, 0xf7, 0xf7, 0x2a,
  0x26, 0x11, 0xf1, 0x07, 0x12, 0x1a, 0xf9, 0xfd, 0xfd, 0xf4, 0x0c, 0x09,
  0x0c, 0xf7, 0xf7, 0xf7, 0x04, 0xe3, 0xfc, 0x1a, 0xd6, 0x2c, 0x11, 0xf6,
  0xed, 0x09, 0xfd, 0x38, 0x04, 0xf7, 0x09, 0xea, 0x02, 0x0a, 0x39, 0xd4,
  0xf7, 0x2c, 0x08, 0xf7, 0xdf, 0x07, 0x11, 0x0a, 0x07, 0x38, 0x11, 0xf4,
  0x03, 0xf2, 0xf6, 0xed, 0xf1, 0xd6, 0xf7, 0xf4, 0x1d, 0x1a, 0x17, 0x06,
  0x08, 0xd6, 0xfe, 0x20, 0x1b, 0x0a, 0x03, 0x11, 0xf7, 0xfb, 0xef, 0xf8,
  0x16, 0x2c, 0x09, 0x26, 0xf8, 0x07, 0xe6, 0xf9, 0x01, 0x21, 0x1a, 0x1d,
  0x1d, 0xef, 0xef, 0xf4, 0x06, 0xf2, 0x07, 0xf7, 0xf7, 0x07, 0x0c, 0xf4,
  0x11, 0xef, 0xef, 0xf1, 0xe6, 0xef, 0xef, 0xf2, 0xfe, 0x0c, 0x2c, 0x09,
  0x11, 0xf4, 0x0c, 0x1a, 0xf8, 0x22, 0x02, 0x0c, 0x0c, 0xef, 0x11, 0x09,
  0xc8, 0xfa, 0x11, 0xe6, 0x07, 0xf9, 0xfc, 0x21, 0x09, 0x11, 0xec, 0xef,
  0x1d, 0xf6, 0xff, 0xf7, 0x40, 0x11, 0x07, 0x07, 0xf7, 0x1d, 0xfc, 0xf7,
  0xfe, 0xf7, 0x14, 0x03, 0xf8, 0x04, 0x11, 0x05, 0xf4, 0xf6, 0x0c, 0x01,
  0x04, 0x38, 0xef, 0x07, 0xf7, 0xf6, 0x1a, 0xe6, 0x0a, 0xd6, 0xf7, 0xef,
  0x01, 0xf9, 0xe3, 0x06, 0x07, 0xfc, 0xdf, 0x0c, 0xf2, 0xff, 0xe6, 0x02,
  0xf7, 0x1d, 0x20, 0x11, 0x0a, 0x11, 0x05, 0xf7, 0x5e, 0x71, 0xff, 0xff,
  0x04, 0x00, 0x00, 0x00, 0xa8, 0x00, 0x00, 0x00, 0xca, 0x87, 0x9e, 0xff,
  0x0e, 0xe3, 0x82, 0xff, 0x04, 0x83, 0xc9, 0x00, 0xd5, 0x3c, 0xc1, 0xff,
  0xd2, 0x96, 0xd4, 0xff, 0x1d, 0x3b, 0x00, 0x00, 0x90, 0x6e, 0x88, 0xff,
  0x42, 0x41, 0xcb, 0xff, 0xa7, 0x15, 0xa3, 0xff, 0xa1, 0x63, 0xa5, 0xff,
  0xa2, 0xec, 0x6d, 0x01, 0x14, 0xb0, 0x56, 0xff, 0x37, 0x95, 0xc1, 0xff,
  0x4a, 0xad, 0x82, 0xff, 0x6b, 0x96, 0x8d, 0xff, 0xbb, 0x68, 0x8f, 0xff,
  0xf7, 0xbd, 0x9d, 0xff, 0x99, 0xb4, 0xc6, 0xff, 0x58, 0xb3, 0xaa, 0xff,
  0xb1, 0x04, 0xc2, 0xff, 0xbb, 0xb5, 0xc2, 0xff, 0x96, 0x26, 0xc2, 0xff,
  0x86, 0x1a, 0xb6, 0xff, 0xc7, 0x1e, 0x5d, 0xff, 0x58, 0xe3, 0xbc, 0xff,
  0xd8, 0xbe, 0xc9, 0xff, 0x74, 0xd4, 0x5d, 0xff, 0x6f, 0xce, 0x98, 0xff,
  0x93, 0xc4, 0x83, 0xff, 0xde, 0x24, 0xa8, 0xff, 0x2a, 0x23, 0x94, 0xff,
  0x83, 0xf8, 0xca, 0xff, 0xb3, 0x86, 0xa8, 0xff, 0xa0, 0x88, 0xcf, 0x04,
  0x0a, 0x75, 0xc2, 0xff, 0xee, 0xe7, 0xc5, 0xff, 0x14, 0x2b, 0x92, 0xff,
  0x54, 0x7a, 0xa6, 0xff, 0x48, 0x29, 0xce, 0xff, 0xc8, 0xc5, 0x8e, 0xff,
  0x76, 0x01, 0x96, 0xff, 0xdf, 0xb7, 0xd4, 0xff, 0x12, 0x72, 0xff, 0xff,
  0x04, 0x00, 0x00, 0x00, 0x09, 0x00, 0x00, 0x00, 0x00, 0x00, 0x00, 0x24,
  0xc7, 0x03, 0xe0, 0x00, 0x81, 0x00, 0x00, 0x00, 0x2a, 0x72, 0xff, 0xff,
  0x04, 0x00, 0x00, 0x00, 0x00, 0x01, 0x00, 0x00, 0x7a, 0x31, 0xf0, 0xff,
  0xb2, 0x83, 0xd9, 0xff, 0x1c, 0x40, 0xf1, 0xff, 0x5a, 0xa1, 0xeb, 0xff,
  0x54, 0x91, 0xed, 0xff, 0x02, 0xa7, 0xf2, 0xff, 0x0c, 0x53, 0xc7, 0xff,
  0x34, 0x60, 0xd9, 0xff, 0x90, 0x4f, 0xf1, 0xff, 0x56, 0x6b, 0xef, 0xff,
  0x9d, 0x7d, 0xf0, 0xff, 0xd7, 0x0d, 0xf6, 0xff, 0x29, 0x6d, 0xdb, 0xff,
  0xfc, 0xe1, 0xe6, 0xff, 0xd4, 0x97, 0xf1, 0xff, 0x78, 0x4c, 0xf0, 0xff,
  0x27, 0xa3, 0xec, 0xff, 0x57, 0xdc, 0xc7, 0xff, 0xd6, 0x08, 0xe8, 0xff,
  0x13, 0x0c, 0xeb, 0xff, 0x08, 0xc2, 0xf3, 0xff, 0x3f, 0xe0, 0xde, 0xff,
  0x8d, 0x43, 0xce, 0xff, 0xd5, 0xd7, 0xca, 0xff, 0xbf, 0x51, 0xe9, 0xff,
  0xf0, 0x62, 0xdf, 0xff, 0xab, 0xbc, 0xea, 0xff, 0xf1, 0xda, 0xe9, 0xff,
  0x74, 0x87, 0xcd, 0xff, 0xe8, 0x85, 0xf1, 0xff, 0xf4, 0x13, 0xca, 0xff,
  0xb2, 0xed, 0xed, 0xff, 0x81, 0xe1, 0x72, 0xff, 0x4b, 0x31, 0xf0, 0xff,
  0x8c, 0x3b, 0xe4, 0xff, 0x87, 0x85, 0xe4, 0xff, 0xf9, 0xd5, 0xec, 0xff,
  0x3e, 0xab, 0xdc, 0xff, 0x51, 0x18, 0xce, 0xff, 0xd7, 0x5f, 0xba, 0xff,
  0x66, 0x22, 0xef, 0xff, 0xc3, 0xd5, 0xc5, 0xff, 0xf0, 0xd7, 0xee, 0xff,
  0xe6, 0x9a, 0xef, 0xff, 0xbf, 0x0d, 0xcc, 0xff, 0x2d, 0x25, 0xc9, 0xff,
  0x22, 0xae, 0xda, 0xff, 0x28, 0xd2, 0xef, 0xff, 0xeb, 0xda, 0xe6, 0xff,
  0x75, 0x84, 0xf2, 0xff, 0x90, 0x1f, 0xdc, 0xff, 0x69, 0xf9, 0xee, 0xff,
  0x98, 0x6b, 0xc1, 0xff, 0x88, 0x12, 0xee, 0xff, 0xc3, 0x4e, 0xae, 0xff,
  0xf2, 0xf1, 0xe2, 0xff, 0x74, 0x60, 0xf1, 0xff, 0xea, 0xe6, 0xc8, 0xff,
  0xab, 0xce, 0xe8, 0xff, 0x80, 0x8b, 0xf1, 0xff, 0xf5, 0x66, 0xc3, 0xff,
  0x17, 0x3b, 0xf0, 0xff, 0xc7, 0x61, 0x85, 0xff, 0x5a, 0xf9, 0xb6, 0xff,
  0x36, 0x73, 0xff, 0xff, 0x04, 0x00, 0x00, 0x00, 0x40, 0x02, 0x00, 0x00,
  0xf1, 0x09, 0x03, 0xfa, 0xe6, 0xf9, 0x0c, 0x11, 0xf7, 0x11, 0x11, 0x1d,
  0xef, 0x0f, 0xf7, 0x1a, 0x12, 0x11, 0xf4, 0x0a, 0xfd, 0x13, 0x09, 0x11,
  0xef, 0x11, 0xf7, 0x11, 0xf7, 0xf9, 0xef, 0xf4, 0x0c, 0xf7, 0x0c, 0x11,
  0xe3, 0x11, 0xff, 0xe6, 0xef, 0xf7, 0xef, 0xef, 0xf4, 0x07, 0x11, 0x07,
  0xf4, 0xf7, 0xe3, 0x07, 0x0a, 0xf7, 0xf4, 0xef, 0xf7, 0x07, 0x0f, 0x0a,
  0x13, 0xf7, 0xda, 0xfe, 0x21, 0xf9, 0xed, 0x02, 0x11, 0x09, 0x09, 0xe6,
  0xef, 0xf7, 0xf4, 0x07, 0x0a, 0xf6, 0xef, 0xf7, 0xf7, 0xfe, 0x1d, 0xf6,
  0xef, 0x0a, 0xef, 0xf9, 0xf7, 0x03, 0x0c, 0x0a, 0x01, 0x09, 0x11, 0x0e,
  0x11, 0x09, 0xf4, 0xf9, 0x0c, 0xf9, 0xf7, 0xe3, 0x1d, 0xe3, 0x11, 0xef,
  0x2a, 0x07, 0x0c, 0xe0, 0xed, 0xdf, 0x09, 0xe6, 0x03, 0xef, 0xf9, 0xf9,
  0xef, 0x11, 0xf4, 0xf4, 0xef, 0x04, 0x11, 0xf2, 0x1d, 0x11, 0xf7, 0x07,
  0xe6, 0xe3, 0xf2, 0x07, 0xf9, 0x0c, 0x0c, 0xef, 0x09, 0xf9, 0xf7, 0x0a,
  0x04, 0xe6, 0x09, 0xf7, 0xe6, 0xf9, 0xd6, 0x11, 0xf4, 0x1d, 0xf9, 0x11,
  0x1d, 0xe3, 0x13, 0x11, 0x01, 0x09, 0xec, 0xef, 0xf1, 0xf6, 0xf9, 0x09,
  0x07, 0x09, 0xe3, 0x0c, 0xf9, 0xef, 0x0c, 0x11, 0x11, 0x11, 0xe6, 0x0a,
  0xf9, 0x0c, 0x09, 0xf7, 0xf9, 0x07, 0x0c, 0xf4, 0x0c, 0xe3, 0x0a, 0xe6,
  0x1d, 0x09, 0xe3, 0x1a, 0x0c, 0xef, 0xe6, 0x0e, 0xef, 0x03, 0xde, 0xf4,
  0xf7, 0xf4, 0x08, 0x08, 0xf7, 0xe6, 0x09, 0xfd, 0x02, 0x21, 0x0c, 0x21,
  0xf2, 0x1a, 0xf9, 0x07, 0x1d, 0xe3, 0x11, 0xef, 0x1a, 0xf6, 0x2a, 0xfa,
  0x0c, 0x2c, 0x13, 0xef, 0xf4, 0x0c, 0xe3, 0xe3, 0x1a, 0xf2, 0x04, 0x11,
  0x1d, 0xe3, 0xdf, 0xf4, 0x1a, 0xf4, 0x0a, 0x11, 0xe6, 0x1d, 0x09, 0xef,
  0xfc, 0x0a, 0xfc, 0x21, 0xf9, 0xe6, 0x02, 0x1a, 0x08, 0x1a, 0x1a, 0x11,
  0x11, 0x07, 0xef, 0x0c, 0x07, 0x18, 0xc7, 0xf4, 0x11, 0xef, 0x02, 0x16,
  0xf4, 0x13, 0x0e, 0x1a, 0xf4, 0x07, 0xe6, 0x1d, 0x0c, 0xf7, 0xf4, 0xf4,
  0x09, 0x09, 0x01, 0x0f, 0x0c, 0x0c, 0x1a, 0xf4, 0xf1, 0x1d, 0x0a, 0xf4,
  0x02, 0xe3, 0xf6, 0x07, 0xff, 0x11, 0xf7, 0xef, 0xf9, 0x0c, 0xf1, 0x09,
  0x1b, 0xe6, 0xfd, 0x1d, 0x11, 0x16, 0xe6, 0xf9, 0xe3, 0xe3, 0xef, 0xf7,
  0x07, 0xf9, 0xf4, 0xf9, 0x09, 0xef, 0x13, 0xef, 0x0c, 0xe8, 0xf6, 0xf9,
  0x2a, 0xef, 0x09, 0x0c, 0x07, 0xe6, 0xf4, 0x13, 0x1a, 0xfd, 0x39, 0xed,
  0x18, 0x09, 0x09, 0xab, 0xe6, 0xe6, 0xf4, 0x13, 0x20, 0x03, 0xf1, 0x1d,
  0x0f, 0xf9, 0x0c, 0xf7, 0xf9, 0x09, 0xf9, 0x11, 0x11, 0x05, 0xe6, 0xef,
  0x11, 0xef, 0x07, 0xf7, 0x0e, 0x11, 0xef, 0xef, 0x09, 0x11, 0xef, 0x1a,
  0xf4, 0xe3, 0x11, 0xde, 0xf7, 0xf4, 0xf9, 0xf4, 0xf7, 0xef, 0x0a, 0x0c,
  0xe3, 0xff, 0xf6, 0xf7, 0xd6, 0x11, 0xfe, 0x0a, 0xef, 0x02, 0x09, 0x0a,
  0xef, 0xf4, 0xe6, 0xe6, 0x11, 0xd4, 0xe0, 0x0a, 0x07, 0xe6, 0x01, 0xef,
  0xe6, 0xf4, 0xfa, 0xef, 0x1a, 0xe6, 0x07, 0xf6, 0x11, 0xf9, 0xf7, 0xef,
  0xf6, 0xf4, 0xef, 0x0a, 0xef, 0xfd, 0xe8, 0xf4, 0xeb, 0x11, 0x11, 0x0c,
  0x09, 0x11, 0xf9, 0x07, 0x0a, 0x09, 0x1d, 0x11, 0x03, 0x0c, 0x07, 0xf7,
  0xf4, 0xfd, 0x0c, 0xf4, 0xef, 0xf7, 0x11, 0xf4, 0xf9, 0x11, 0x07, 0x09,
  0xfd, 0xef, 0xe3, 0xf4, 0x11, 0xe6, 0x0a, 0x18, 0x1d, 0x02, 0x11, 0x07,
  0xf8, 0xe3, 0xf7, 0x09, 0xef, 0x09, 0x21, 0x38, 0xf7, 0x09, 0xf4, 0xfc,
  0x0a, 0xf3, 0x16, 0xed, 0xef, 0xf2, 0xef, 0xde, 0xef, 0xf4, 0xf4, 0x11,
  0xef, 0xf9, 0xf4, 0xfc, 0x11, 0x0c, 0xe6, 0x09, 0xe6, 0xf4, 0x2c, 0x07,
  0xed, 0x03, 0x07, 0x09, 0xf4, 0xfc, 0x11, 0xf9, 0x09, 0xe0, 0xe3, 0x09,
  0x09, 0x11, 0xf7, 0xf7, 0xf7, 0x07, 0xf9, 0x03, 0x14, 0x11, 0xef, 0x13,
  0xf7, 0x14, 0x21, 0xd6, 0xf9, 0xe3, 0xf7, 0xd6, 0x0c, 0xe6, 0xe6, 0xe3,
  0x1d, 0xf7, 0x09, 0xf9, 0x11, 0xf4, 0xf6, 0x21, 0x07, 0xea, 0xe0, 0x0c,
  0xef, 0x04, 0x09, 0x40, 0x1a, 0xf7, 0x40, 0xf4, 0xf6, 0x1a, 0x26, 0xf7,
  0x82, 0x75, 0xff, 0xff, 0x04, 0x00, 0x00, 0x00, 0x09, 0x00, 0x00, 0x00,
  0x7f, 0x51, 0x74, 0x2d, 0x83, 0x7f, 0xb0, 0x7f, 0x80, 0x00, 0x00, 0x00,
  0x9a, 0x75, 0xff, 0xff, 0x04, 0x00, 0x00, 0x00, 0x09, 0x00, 0x00, 0x00,
  0xb5, 0xd3, 0x7f, 0xe7, 0xbe, 0x1c, 0xe7, 0x44, 0xce, 0x00, 0x00, 0x00,
  0xb2, 0x75, 0xff, 0xff, 0x04, 0x00, 0x00, 0x00, 0x24, 0x00, 0x00, 0x00,
  0x15, 0x45, 0xad, 0xff, 0x0c, 0xdf, 0x01, 0x00, 0x6d, 0x20, 0x01, 0x00,
  0x79, 0x7e, 0x00, 0x00, 0xce, 0x50, 0x01, 0x00, 0xfa, 0x1f, 0xfa, 0xff,
  0x9f, 0x24, 0x02, 0x00, 0x10, 0x43, 0x9e, 0xfd, 0x65, 0x7d, 0x02, 0x00,
  0xe2, 0x75, 0xff, 0xff, 0x04, 0x00, 0x00, 0x00, 0xb5, 0x02, 0x00, 0x00,
  0x07, 0xda, 0x11, 0x0c, 0xf8, 0xd4, 0xf9, 0xe6, 0x11, 0xef, 0xf6, 0x04,
  0x05, 0xf4, 0xfc, 0x09, 0xab, 0xef, 0xf8, 0x02, 0x11, 0xef, 0x09, 0x07,
  0xef, 0xf4, 0xf7, 0x0a, 0xe6, 0x07, 0x07, 0x1d, 0xf9, 0xed, 0x0a, 0xf4,
  0xfe, 0x09, 0xf9, 0xd6, 0xf8, 0xef, 0xf6, 0x0c, 0xfe, 0xf7, 0x09, 0xeb,
  0xf1, 0x11, 0xea, 0x09, 0x0c, 0xe6, 0x0c, 0xf1, 0xc0, 0x07, 0xff, 0x0f,
  0x13, 0xf7, 0xfc, 0x09, 0x1a, 0x11, 0xef, 0xfe, 0xef, 0xef, 0xe6, 0xfe,
  0x2c, 0xf9, 0xef, 0x0c, 0xf1, 0x00, 0x00, 0x00, 0x00, 0x00, 0x00, 0x00,
  0x00, 0x00, 0x00, 0x00, 0x00, 0x00, 0x00, 0x00, 0x00, 0x00, 0x00, 0x00,
  0x00, 0x00, 0x00, 0x00, 0x00, 0x00, 0x00, 0x00, 0x00, 0x00, 0x00, 0x00,
  0x00, 0x00, 0x00, 0x00, 0x00, 0x00, 0x00, 0x00, 0x00, 0x00, 0x00, 0x00,
  0x00, 0x00, 0x00, 0x00, 0x00, 0x00, 0x00, 0x00, 0x46, 0x00, 0x00, 0xdc,
  0x00, 0x00, 0x00, 0x00, 0x00, 0x00, 0x00, 0x7f, 0x00, 0x00, 0x00, 0x00,
  0x3e, 0x00, 0x00, 0x00, 0x00, 0x00, 0x00, 0x00, 0x00, 0x00, 0x00, 0x00,
  0x00, 0x00, 0x00, 0x00, 0x00, 0x00, 0x00, 0x00, 0x00, 0x00, 0x00, 0x00,
  0x00, 0x00, 0x00, 0x00, 0x00, 0x00, 0x00, 0x00, 0x00, 0x00, 0x00, 0x00,
  0x00, 0x00, 0x00, 0x00, 0x00, 0x00, 0x00, 0x00, 0x00, 0x00, 0x00, 0x00,
  0x00, 0x00, 0x00, 0x00, 0x00, 0x00, 0x00, 0x00, 0x00, 0x00, 0x00, 0x00,
  0x00, 0x81, 0x00, 0x00, 0x10, 0x00, 0x00, 0x00, 0x00, 0x00, 0x00, 0x00,
  0xac, 0x00, 0x00, 0x00, 0x00, 0xb0, 0x00, 0x00, 0x00, 0x00, 0x00, 0x00,
  0x00, 0x00, 0x00, 0x00, 0x00, 0x00, 0x00, 0x00, 0x00, 0x00, 0x00, 0x00,
  0x00, 0x00, 0x00, 0x00, 0x00, 0x00, 0x00, 0x00, 0x00, 0x00, 0x00, 0x00,
  0x00, 0x00, 0x00, 0x00, 0x00, 0x00, 0x00, 0x00, 0x00, 0x00, 0x00, 0x00,
  0x00, 0x00, 0x00, 0x00, 0x00, 0x00, 0x00, 0x00, 0x00, 0x00, 0x00, 0x00,
  0x00, 0x00, 0x00, 0x00, 0x00, 0x00, 0xdf, 0x00, 0x00, 0x7f, 0x00, 0x00,
  0x00, 0x00, 0x00, 0x00, 0x00, 0xe5, 0x00, 0x00, 0x00, 0x00, 0x50, 0x00,
  0x00, 0x00, 0x00, 0x00, 0x00, 0x00, 0x00, 0x00, 0x00, 0x00, 0x00, 0x00,
  0x00, 0x00, 0x00, 0x00, 0x00, 0x00, 0x00, 0x00, 0x00, 0x00, 0x00, 0x00,
  0x00, 0x00, 0x00, 0x00, 0x00, 0x00, 0x00, 0x00, 0x00, 0x00, 0x00, 0x00,
  0x00, 0x00, 0x00, 0x00, 0x00, 0x00, 0x00, 0x00, 0x00, 0x00, 0x00, 0x00,
  0x00, 0x00, 0x00, 0x00, 0x00, 0x00, 0x00, 0x00, 0x00, 0x00, 0x00, 0x7f,
  0x00, 0x00, 0xca, 0x00, 0x00, 0x00, 0x00, 0x00, 0x00, 0x00, 0xc9, 0x00,
  0x00, 0x00, 0x00, 0x6c, 0x00, 0x00, 0x00, 0x00, 0x00, 0x00, 0x00, 0x00,
  0x00, 0x00, 0x00, 0x00, 0x00, 0x00, 0x00, 0x00, 0x00, 0x00, 0x00, 0x00,
  0x00, 0x00, 0x00, 0x00, 0x00, 0x00, 0x00, 0x00, 0x00, 0x00, 0x00, 0x00,
  0x00, 0x00, 0x00, 0x00, 0x00, 0x00, 0x00, 0x00, 0x00, 0x00, 0x00, 0x00,
  0x00, 0x00, 0x00, 0x00, 0x00, 0x00, 0x00, 0x00, 0x00, 0x00, 0x00, 0x00,
  0x00, 0x00, 0x00, 0x00, 0x78, 0x00, 0x00, 0xd4, 0x00, 0x00, 0x00, 0x00,
  0x00, 0x00, 0x00, 0xa2, 0x00, 0x00, 0x00, 0x00, 0x7f, 0x00, 0x00, 0x00,
  0x00, 0x00, 0x00, 0x00, 0x00, 0x00, 0x00, 0x00, 0x00, 0x00, 0x00, 0x00,
  0x00, 0x00, 0x00, 0x00, 0x00, 0x00, 0x00, 0x00, 0x00, 0x00, 0x00, 0x00,
  0x00, 0x00, 0x00, 0x00, 0x00, 0x00, 0x00, 0x00, 0x00, 0x00, 0x00, 0x00,
  0x00, 0x00, 0x00, 0x00, 0x00, 0x00, 0x00, 0x00, 0x00, 0x00, 0x00, 0x00,
  0x00, 0x00, 0x00, 0x00, 0x00, 0x00, 0x00, 0x00, 0x00, 0xa7, 0x00, 0x00,
  0xa6, 0x00, 0x00, 0x00, 0x00, 0x00, 0x00, 0x00, 0x44, 0x00, 0x00, 0x00,
  0x00, 0x7f, 0x00, 0x00, 0x00, 0x00, 0x00, 0x00, 0x00, 0x00, 0x00, 0x07,
  0x09, 0x18, 0x0d, 0x07, 0xdf, 0x09, 0x1b, 0xf9, 0x09, 0xf6, 0xf1, 0x15,
  0x09, 0x09, 0xf9, 0xf8, 0xf9, 0x1a, 0xf7, 0x1d, 0xf7, 0x05, 0xfe, 0xed,
  0x07, 0x0a, 0xdf, 0x11, 0xef, 0x16, 0xef, 0xef, 0xff, 0xf7, 0xf7, 0xe6,
  0xf9, 0xe8, 0xe6, 0x09, 0xf7, 0x0a, 0xf4, 0xf1, 0xdf, 0x09, 0xe6, 0x11,
  0xf7, 0x21, 0x02, 0x07, 0x09, 0x09, 0xdf, 0x1a, 0xe3, 0xf7, 0x1a, 0x09,
  0xde, 0x21, 0xe8, 0x07, 0x09, 0xf1, 0x0a, 0x2c, 0x15, 0x0c, 0x09, 0x06,
  0x0c, 0x03, 0x1d, 0xf9, 0x00, 0x00, 0x00, 0x00, 0x00, 0x00, 0x00, 0x00,
  0x00, 0x00, 0x00, 0x00, 0x00, 0x00, 0x00, 0x00, 0x00, 0x00, 0x00, 0x00,
  0x00, 0x00, 0x00, 0x00, 0x00, 0x00, 0x00, 0x00, 0x00, 0x00, 0x00, 0x00,
  0x00, 0x00, 0x00, 0x00, 0x00, 0x00, 0x00, 0x00, 0x00, 0x00, 0x00, 0x00,
  0x00, 0x00, 0x00, 0x00, 0x00, 0x00, 0x00, 0xae, 0x00, 0x00, 0xd5, 0x00,
  0x00, 0x00, 0x00, 0x00, 0x00, 0x00, 0x81, 0x00, 0x00, 0x00, 0x00, 0xf9,
  0x00, 0x00, 0x00, 0x00, 0x00, 0x00, 0x00, 0x00, 0x00, 0x00, 0x00, 0x00,
  0xa6, 0x78, 0xff, 0xff, 0x04, 0x00, 0x00, 0x00, 0x74, 0x00, 0x00, 0x00,
  0x0f, 0x98, 0xcc, 0xff, 0x49, 0x46, 0xe9, 0xff, 0x86, 0x08, 0xe6, 0xff,
  0x1a, 0x75, 0xd1, 0x01, 0x22, 0x97, 0xdf, 0xff, 0x0b, 0x2e, 0xd4, 0xff,
  0x79, 0x16, 0x00, 0x00, 0xaf, 0x7f, 0xe4, 0xff, 0xe9, 0x67, 0xee, 0xff,
  0xd7, 0x92, 0xe2, 0xff, 0x79, 0xf0, 0xb9, 0xff, 0x1e, 0x7f, 0xd4, 0xff,
  0x1c, 0x70, 0xe1, 0xff, 0x44, 0x20, 0xf3, 0xff, 0x7b, 0xdf, 0xdb, 0x00,
  0x18, 0x9b, 0xf0, 0xff, 0xce, 0x4d, 0xec, 0xff, 0xdb, 0xf4, 0xeb, 0xff,
  0x50, 0x89, 0xc3, 0xff, 0x21, 0x28, 0xb8, 0x00, 0xde, 0x80, 0xe6, 0xff,
  0x76, 0xcf, 0xd8, 0xff, 0x14, 0x1d, 0xeb, 0xff, 0xe7, 0x58, 0xec, 0xff,
  0x10, 0xb6, 0xc9, 0xff, 0x4c, 0x2c, 0xec, 0xff, 0xae, 0x84, 0xe3, 0xff,
  0x5a, 0xab, 0xde, 0xff, 0xba, 0x42, 0xea, 0xff, 0x26, 0x79, 0xff, 0xff,
  0x04, 0x00, 0x00, 0x00, 0x09, 0x00, 0x00, 0x00, 0x27, 0xfd, 0xc6, 0xcd,
  0x04, 0xe7, 0x3a, 0x00, 0x81, 0x00, 0x00, 0x00, 0x3e, 0x79, 0xff, 0xff,
  0x04, 0x00, 0x00, 0x00, 0xc0, 0x00, 0x00, 0x00, 0xe8, 0x3c, 0xfc, 0xff,
  0xde, 0x25, 0xf4, 0xff, 0x08, 0x70, 0xfb, 0xff, 0x1c, 0x55, 0xf9, 0xff,
  0x5e, 0xc3, 0xf5, 0xff, 0x34, 0x01, 0xf4, 0xff, 0x2b, 0x44, 0xfb, 0xff,
  0xe3, 0xec, 0xf4, 0xff, 0x92, 0x18, 0xfb, 0xff, 0xc9, 0x4d, 0xfa, 0xff,
  0x7c, 0xeb, 0xfb, 0xff, 0x4e, 0x24, 0xea, 0xff, 0x70, 0x70, 0xf5, 0xff,
  0x57, 0x25, 0xfb, 0xff, 0x8a, 0x3d, 0xf5, 0xff, 0x35, 0xca, 0xfb, 0xff,
  0x24, 0x4b, 0xf1, 0xff, 0xda, 0x74, 0xf3, 0xff, 0x51, 0xd6, 0xf8, 0xff,
  0xa0, 0x23, 0xe4, 0xff, 0x3c, 0x2b, 0xfc, 0xff, 0xeb, 0x0e, 0xfb, 0xff,
  0xab, 0x43, 0xfb, 0xff, 0x85, 0x8c, 0xf3, 0xff, 0x2a, 0x9b, 0xf8, 0xff,
  0x1c, 0x83, 0xf2, 0xff, 0x7f, 0xd7, 0xfa, 0xff, 0x6f, 0xc8, 0xf4, 0xff,
  0x4f, 0xad, 0xf7, 0xff, 0xbd, 0x19, 0xf9, 0xff, 0x30, 0x77, 0xf9, 0xff,
  0x21, 0xbd, 0xf6, 0xff, 0x1f, 0x32, 0xf2, 0xff, 0xca, 0x2b, 0xfa, 0xff,
  0x4c, 0xe1, 0xf9, 0xff, 0xb3, 0xc2, 0xe8, 0xff, 0xb4, 0x8d, 0xf7, 0xff,
  0xad, 0xca, 0xfb, 0xff, 0x76, 0x17, 0xfb, 0xff, 0x7f, 0xb4, 0xfa, 0xff,
  0x86, 0xcb, 0xf4, 0xff, 0x94, 0x34, 0xf4, 0xff, 0x7c, 0x1b, 0xfa, 0xff,
  0x31, 0xa3, 0xfa, 0xff, 0xf1, 0x29, 0xf7, 0xff, 0xc5, 0xb4, 0xef, 0xff,
  0xb7, 0xad, 0xef, 0xff, 0xa0, 0x34, 0xf2, 0xff, 0x0a, 0x7a, 0xff, 0xff,
  0x04, 0x00, 0x00, 0x00, 0xb0, 0x01, 0x00, 0x00, 0xef, 0x11, 0x07, 0xf4,
  0x07, 0xf4, 0xf4, 0x0c, 0x0c, 0xf4, 0x11, 0xc0, 0xf4, 0xc0, 0xd4, 0x2a,
  0xfc, 0x09, 0xef, 0x09, 0xe6, 0x0c, 0xe3, 0x11, 0x11, 0xf9, 0xf9, 0xf9,
  0x02, 0x0a, 0xf9, 0x1a, 0xf4, 0x09, 0xf8, 0x11, 0x11, 0xf4, 0xf9, 0x09,
  0x1a, 0xd4, 0xd4, 0xeb, 0xf4, 0xe6, 0x09, 0x09, 0x13, 0x12, 0x07, 0xf4,
  0x20, 0x1a, 0xef, 0x09, 0x09, 0xf7, 0x07, 0x1a, 0x20, 0x1a, 0x09, 0xe6,
  0x1d, 0x09, 0xf1, 0xf9, 0xe6, 0x0c, 0x03, 0xf9, 0x0a, 0xef, 0xf7, 0x11,
  0x09, 0x01, 0x11, 0xee, 0x07, 0xf7, 0xf9, 0x1d, 0xf7, 0xf9, 0xef, 0x07,
  0x1d, 0x07, 0x11, 0x0c, 0x09, 0x11, 0xef, 0xf9, 0xf7, 0xe6, 0x09, 0x1a,
  0xe6, 0x06, 0x1b, 0x09, 0xef, 0xde, 0x03, 0x0c, 0xff, 0x02, 0xf4, 0xff,
  0xef, 0x04, 0xf7, 0x0a, 0x1d, 0x1a, 0x09, 0xf9, 0xf2, 0x0a, 0xf7, 0x0c,
  0xf7, 0x11, 0xf4, 0x0a, 0xfd, 0xef, 0x09, 0x0a, 0x0a, 0xf9, 0xf2, 0xef,
  0x11, 0xf7, 0xf9, 0xe6, 0xf4, 0x0a, 0x1a, 0xf4, 0x0c, 0xf6, 0x22, 0xef,
  0xf6, 0xf8, 0x13, 0x18, 0x1d, 0xe0, 0xef, 0xef, 0x0c, 0xc7, 0xff, 0xe6,
  0xf3, 0x07, 0x09, 0xf4, 0x1a, 0x11, 0xf9, 0xf7, 0x0c, 0xef, 0x1d, 0xf3,
  0x11, 0xf4, 0xef, 0x12, 0x01, 0xf4, 0x0d, 0x22, 0x11, 0x0c, 0x0c, 0x0c,
  0xf4, 0xef, 0xf9, 0xef, 0x07, 0xf4, 0x09, 0x0a, 0xf4, 0x11, 0xe3, 0xe3,
  0xef, 0xf4, 0x0c, 0xf4, 0xef, 0x11, 0xf4, 0xf4, 0x07, 0xf6, 0x0c, 0x01,
  0xfc, 0xf6, 0xe3, 0xf4, 0x03, 0x2c, 0x03, 0xdf, 0xf7, 0xf6, 0x0a, 0x0b,
  0x1b, 0x0a, 0x1d, 0x1d, 0x0a, 0xef, 0xf7, 0x12, 0x07, 0x0c, 0x08, 0xe8,
  0x0c, 0xef, 0x1d, 0x07, 0xf6, 0xf4, 0x09, 0x0c, 0xf4, 0x07, 0x11, 0x11,
  0x11, 0xef, 0xe3, 0x21, 0x1a, 0xef, 0x21, 0xe9, 0x09, 0xea, 0xef, 0x11,
  0x11, 0x0c, 0x1a, 0xe3, 0xdf, 0xef, 0xe0, 0xf4, 0xe3, 0x09, 0xf9, 0x0c,
  0x1d, 0x18, 0x1d, 0x11, 0x11, 0xef, 0x09, 0xef, 0x09, 0x1a, 0xf9, 0xfe,
  0x13, 0xe3, 0xf7, 0x11, 0x1a, 0x03, 0x53, 0x06, 0xef, 0xe3, 0xef, 0x11,
  0x1a, 0x1b, 0x0a, 0xf7, 0x03, 0xd4, 0x13, 0x11, 0x11, 0x11, 0xe6, 0xf7,
  0xd6, 0x03, 0xfa, 0xde, 0xdf, 0x07, 0x1a, 0xdf, 0x09, 0xf6, 0xf7, 0x0a,
  0xf2, 0x11, 0xfb, 0xe6, 0x11, 0x03, 0xf7, 0xed, 0xf4, 0x0c, 0xe3, 0x11,
  0x09, 0x14, 0x01, 0x1b, 0x0c, 0xf4, 0xf9, 0xf4, 0x0a, 0x07, 0x11, 0xf7,
  0xe3, 0xf4, 0xef, 0xf9, 0xf7, 0xf9, 0xf4, 0xe6, 0x11, 0x09, 0xf9, 0x09,
  0x07, 0xf1, 0xf9, 0x1b, 0x11, 0x11, 0xfe, 0x11, 0xd6, 0x0a, 0xe5, 0x09,
  0x09, 0x39, 0xdf, 0x0c, 0xf2, 0xfa, 0x02, 0xe6, 0x11, 0x0e, 0xe8, 0x11,
  0xf7, 0x0d, 0x11, 0xe6, 0xf9, 0xf6, 0x11, 0x09, 0x1d, 0xf7, 0x21, 0xf4,
  0x16, 0x11, 0xef, 0x09, 0xe6, 0x09, 0x13, 0x0e, 0x0e, 0x07, 0xef, 0x2c,
  0x1d, 0xef, 0xf7, 0xef, 0xfc, 0x02, 0xfe, 0xe6, 0x1d, 0x07, 0xe3, 0x21,
  0xf7, 0xf7, 0xf9, 0x03, 0xfe, 0x0e, 0x04, 0x11, 0x1a, 0x07, 0x01, 0x08,
  0xdf, 0xf4, 0x09, 0xf2, 0x22, 0x20, 0x09, 0x0c, 0xc6, 0x7b, 0xff, 0xff,
  0x04, 0x00, 0x00, 0x00, 0x09, 0x00, 0x00, 0x00, 0x38, 0x7a, 0x7c, 0x80,
  0x7c, 0x7c, 0x7f, 0x7e, 0xd3, 0x00, 0x00, 0x00, 0xde, 0x7b, 0xff, 0xff,
  0x04, 0x00, 0x00, 0x00, 0x09, 0x00, 0x00, 0x00, 0xb0, 0x69, 0xce, 0xad,
  0x7f, 0xf3, 0xc1, 0x80, 0xb0, 0x00, 0x00, 0x00, 0xf6, 0x7b, 0xff, 0xff,
  0x04, 0x00, 0x00, 0x00, 0x24, 0x00, 0x00, 0x00, 0x86, 0x4a, 0x00, 0x00,
  0xe9, 0x8a, 0xff, 0xff, 0x0e, 0xb2, 0xff, 0xff, 0x16, 0x12, 0x01, 0x00,
  0x4d, 0x6f, 0xff, 0xff, 0xff, 0x07, 0x00, 0x00, 0xd9, 0xe5, 0xff, 0xff,
  0xa0, 0x17, 0x71, 0x04, 0x36, 0xfa, 0x00, 0x00, 0x26, 0x7c, 0xff, 0xff,
  0x04, 0x00, 0x00, 0x00, 0x60, 0x03, 0x00, 0x00, 0x00, 0x00, 0x00, 0x00,
  0x00, 0x00, 0x00, 0x00, 0x00, 0x00, 0x00, 0x00, 0x00, 0x00, 0x00, 0x00,
  0x00, 0x00, 0x00, 0x00, 0x00, 0x00, 0x00, 0x00, 0x00, 0x00, 0x00, 0x00,
  0x00, 0x00, 0x00, 0x00, 0x00, 0x00, 0x00, 0x00, 0x00, 0x00, 0x00, 0x00,
  0x00, 0x00, 0x00, 0x00, 0x00, 0x00, 0x00, 0x00, 0x00, 0x00, 0x00, 0x00,
  0x00, 0x00, 0x00, 0x00, 0x00, 0x00, 0x00, 0x00, 0x00, 0x00, 0x00, 0x00,
  0x00, 0x00, 0x00, 0x00, 0x00, 0x00, 0x00, 0x00, 0x00, 0x9a, 0x00, 0x00,
  0x00, 0x00, 0x00, 0x00, 0x00, 0x00, 0x00, 0x6a, 0x00, 0x00, 0x81, 0x78,
  0xe6, 0x00, 0x00, 0x0b, 0x00, 0x00, 0x00, 0x00, 0x00, 0x00, 0x00, 0x00,
  0x00, 0x00, 0x00, 0x00, 0x00, 0x00, 0x00, 0x00, 0x00, 0x00, 0x00, 0x00,
  0x00, 0x00, 0x00, 0x00, 0x00, 0x00, 0x00, 0x00, 0x00, 0x00, 0x00, 0x00,
  0x00, 0x00, 0x00, 0x00, 0x00, 0x00, 0x00, 0x00, 0x00, 0x00, 0x00, 0x00,
  0x00, 0x00, 0x00, 0x00, 0x00, 0x00, 0x00, 0x00, 0x00, 0x00, 0x00, 0x00,
  0x00, 0x00, 0x00, 0x00, 0x00, 0x00, 0x00, 0x00, 0x00, 0x00, 0x00, 0x00,
  0x00, 0x00, 0x00, 0x00, 0x00, 0x00, 0x00, 0x00, 0x00, 0x09, 0x00, 0x00,
  0x00, 0x00, 0x00, 0x00, 0x00, 0x00, 0x00, 0x7f, 0x00, 0x00, 0xe1, 0xd9,
  0xe8, 0x00, 0x00, 0xd3, 0x00, 0x00, 0x00, 0x00, 0x00, 0x00, 0x00, 0x00,
  0x00, 0x00, 0x00, 0x00, 0x00, 0x00, 0x00, 0x00, 0x00, 0x00, 0x00, 0x00,
  0x00, 0x00, 0x00, 0x00, 0x00, 0x00, 0x00, 0x00, 0x00, 0x00, 0x00, 0x00,
  0x00, 0x00, 0x00, 0x00, 0x00, 0x00, 0x00, 0x00, 0x00, 0x00, 0x00, 0x00,
  0x00, 0x00, 0x00, 0x00, 0x00, 0x00, 0x00, 0x00, 0x00, 0x00, 0x00, 0x00,
  0x00, 0x00, 0x00, 0x00, 0x00, 0x00, 0x00, 0x00, 0x00, 0x00, 0x00, 0x00,
  0x00, 0x00, 0x00, 0x00, 0x00, 0x00, 0x00, 0x00, 0x00, 0x7f, 0x00, 0x00,
  0x00, 0x00, 0x00, 0x00, 0x00, 0x00, 0x00, 0xe2, 0x00, 0x00, 0x12, 0xfa,
  0xeb, 0x00, 0x00, 0xfb, 0x00, 0x00, 0x00, 0x00, 0x00, 0x00, 0x00, 0x00,
  0x00, 0x00, 0x00, 0x00, 0x00, 0x00, 0x00, 0x00, 0x00, 0x00, 0x00, 0x00,
  0x00, 0x00, 0x00, 0x00, 0x00, 0x00, 0x00, 0x00, 0x00, 0x00, 0x00, 0x00,
  0x00, 0x00, 0x00, 0x00, 0x00, 0x00, 0x00, 0x00, 0x00, 0x00, 0x00, 0x00,
  0x00, 0x00, 0x00, 0x00, 0x00, 0x00, 0x00, 0x00, 0x00, 0x00, 0x00, 0x00,
  0x00, 0x00, 0x00, 0x00, 0x00, 0x00, 0x00, 0x00, 0x00, 0x00, 0x00, 0x00,
  0x00, 0x00, 0x00, 0x00, 0x00, 0x00, 0x00, 0x00, 0x00, 0x56, 0x00, 0x00,
  0x00, 0x00, 0x00, 0x00, 0x00, 0x00, 0x00, 0xc8, 0x00, 0x00, 0x41, 0xd5,
  0x81, 0x00, 0x00, 0x24, 0x00, 0x00, 0x00, 0x00, 0x00, 0x00, 0x00, 0x00,
  0x00, 0x00, 0x00, 0x00, 0x00, 0x00, 0x00, 0x00, 0x00, 0x00, 0x00, 0x00,
  0x00, 0x00, 0x00, 0x00, 0x00, 0x00, 0x00, 0x00, 0x00, 0x00, 0x00, 0x00,
  0x00, 0x00, 0x00, 0x00, 0x00, 0x00, 0x00, 0x00, 0x00, 0x00, 0x00, 0x00,
  0x00, 0x00, 0x00, 0x00, 0x00, 0x00, 0x00, 0x00, 0x00, 0x00, 0x00, 0x00,
  0x00, 0x00, 0x00, 0x00, 0x00, 0x00, 0x00, 0x00, 0x00, 0x00, 0x00, 0x00,
  0x00, 0x00, 0x00, 0x00, 0x00, 0x00, 0x00, 0x00, 0x00, 0x2b, 0x00, 0x00,
  0x00, 0x00, 0x00, 0x00, 0x00, 0x00, 0x00, 0xea, 0x00, 0x00, 0xd6, 0x7f,
  0xe2, 0x00, 0x00, 0x8b, 0x00, 0x00, 0x00, 0x00, 0x00, 0x00, 0x00, 0x00,
  0x00, 0x00, 0x00, 0x00, 0x00, 0x00, 0x00, 0x00, 0x00, 0x00, 0x00, 0x00,
  0x00, 0x00, 0x00, 0x00, 0x00, 0x00, 0x00, 0x00, 0x00, 0x00, 0x00, 0x00,
  0x00, 0x00, 0x00, 0x00, 0x00, 0x00, 0x00, 0x00, 0x00, 0x00, 0x00, 0x00,
  0x00, 0x00, 0x00, 0x00, 0x00, 0x00, 0x00, 0x00, 0x00, 0x00, 0x00, 0x00,
  0x00, 0x00, 0x00, 0x00, 0x00, 0x00, 0x00, 0x00, 0x00, 0x00, 0x00, 0x00,
  0x00, 0x00, 0x00, 0x00, 0x00, 0x00, 0x00, 0x00, 0x00, 0xbe, 0x00, 0x00,
  0x00, 0x00, 0x00, 0x00, 0x00, 0x00, 0x00, 0x9e, 0x00, 0x00, 0xe2, 0xb2,
  0xe9, 0x00, 0x00, 0x7f, 0x00, 0x00, 0x00, 0x00, 0x00, 0x00, 0x00, 0x00,
  0x00, 0x00, 0x00, 0x00, 0x00, 0x00, 0x00, 0x00, 0x00, 0x00, 0x00, 0x00,
  0x00, 0x00, 0x00, 0x00, 0x00, 0x00, 0x00, 0x00, 0x00, 0x00, 0x00, 0x00,
  0x00, 0x00, 0x00, 0x00, 0x00, 0x00, 0x00, 0x00, 0x00, 0x00, 0x00, 0x00,
  0x00, 0x00, 0x00, 0x00, 0x00, 0x00, 0x00, 0x00, 0x00, 0x00, 0x00, 0x00,
  0x00, 0x00, 0x00, 0x00, 0x00, 0x00, 0x00, 0x00, 0x00, 0x00, 0x00, 0x00,
  0x00, 0x00, 0x00, 0x00, 0x00, 0x00, 0x00, 0x00, 0x00, 0x02, 0x00, 0x00,
  0x00, 0x00, 0x00, 0x00, 0x00, 0x00, 0x00, 0x7f, 0x00, 0x00, 0x17, 0xdc,
  0x30, 0x00, 0x00, 0x5a, 0x00, 0x00, 0x00, 0x00, 0xf7, 0x09, 0xf7, 0xfd,
  0xf7, 0xf4, 0x11, 0x03, 0x04, 0x08, 0x11, 0xec, 0x09, 0x15, 0xf3, 0x03,
  0xf9, 0xe3, 0x13, 0x0a, 0xf0, 0xf4, 0x07, 0xf4, 0xe6, 0x20, 0x21, 0xe8,
  0x09, 0xc8, 0xef, 0x04, 0xff, 0x09, 0x0f, 0x13, 0x09, 0x07, 0x07, 0xef,
  0x08, 0xef, 0xef, 0x08, 0x11, 0xf4, 0x11, 0x26, 0xef, 0xea, 0xf6, 0x2c,
  0x11, 0xf7, 0x11, 0xe6, 0xf9, 0xef, 0x11, 0xee, 0x11, 0x39, 0xe0, 0x14,
  0x2c, 0x11, 0xef, 0xe3, 0xe3, 0xef, 0x09, 0xdf, 0x09, 0xfd, 0x2a, 0xf4,
  0x0c, 0xf8, 0xd4, 0xe3, 0x40, 0x09, 0xe6, 0xf3, 0xfe, 0xe0, 0xe1, 0xe9,
  0x2c, 0xef, 0xf4, 0xed, 0x09, 0x0a, 0xe0, 0xed, 0x00, 0x00, 0x00, 0x00,
  0x00, 0x00, 0x00, 0x00, 0x00, 0x00, 0x00, 0x00, 0x00, 0x00, 0x00, 0x00,
  0x00, 0x00, 0x00, 0x00, 0x00, 0x00, 0x00, 0x00, 0x00, 0x00, 0x00, 0x00,
  0x00, 0x00, 0x00, 0x00, 0x00, 0x00, 0x00, 0x00, 0x00, 0x00, 0x00, 0x00,
  0x00, 0x00, 0x00, 0x00, 0x00, 0x00, 0x00, 0x00, 0x00, 0x00, 0x00, 0x00,
  0x00, 0x00, 0x00, 0x00, 0x00, 0x00, 0x00, 0x00, 0x00, 0x00, 0x00, 0x00,
  0x00, 0x00, 0x00, 0x00, 0x00, 0x00, 0x00, 0x00, 0x00, 0x8b, 0x00, 0x00,
  0x00, 0x00, 0x00, 0x00, 0x00, 0x00, 0x00, 0x8f, 0x00, 0x00, 0x49, 0x81,
  0x0e, 0x00, 0x00, 0x24, 0x00, 0x00, 0x00, 0x00, 0x92, 0x7f, 0xff, 0xff,
  0x04, 0x00, 0x00, 0x00, 0xc0, 0x00, 0x00, 0x00, 0xa4, 0x96, 0xef, 0xff,
  0x05, 0xb2, 0xf0, 0xff, 0x7e, 0x4f, 0x96, 0xff, 0x5f, 0x33, 0xe2, 0xff,
  0x04, 0xe5, 0xe8, 0xff, 0xf3, 0xd7, 0xc7, 0xff, 0x5f, 0x09, 0xde, 0xff,
  0xd2, 0x57, 0xeb, 0xff, 0x4d, 0xb0, 0xec, 0xff, 0x0d, 0x26, 0xf4, 0xff,
  0x83, 0x2e, 0xcd, 0xff, 0x8d, 0x03, 0xdc, 0xff, 0x2a, 0x20, 0xf5, 0xff,
  0xe6, 0x53, 0xf1, 0xff, 0x5d, 0xcd, 0xf1, 0xff, 0x38, 0x9a, 0xf0, 0xff,
  0xfb, 0x27, 0xf7, 0xff, 0x91, 0x20, 0xdb, 0xff, 0xc7, 0x4d, 0xf3, 0xff,
  0x99, 0x27, 0xe1, 0xff, 0x9f, 0x6e, 0xf4, 0xff, 0x68, 0x7a, 0xe6, 0xff,
  0xdb, 0xf9, 0xf3, 0xff, 0xb9, 0x7c, 0xef, 0xff, 0xec, 0x04, 0xf3, 0xff,
  0x34, 0x12, 0x00, 0x00, 0xc6, 0xff, 0xed, 0xff, 0x7d, 0x03, 0xe4, 0xff,
  0xd3, 0x9b, 0xeb, 0xff, 0xd0, 0x42, 0xef, 0xff, 0x7d, 0x2d, 0xf1, 0xff,
  0x94, 0xad, 0xe8, 0xff, 0x92, 0x1f, 0xf2, 0xff, 0xb8, 0x02, 0xf2, 0xff,
  0x99, 0xf8, 0xf1, 0xff, 0x04, 0xc4, 0xff, 0xff, 0x60, 0xec, 0xed, 0xff,
  0x99, 0x6c, 0xc2, 0xff, 0x88, 0xe1, 0xff, 0xff, 0x8e, 0xd9, 0xff, 0xff,
  0xb7, 0xf0, 0xff, 0xff, 0x57, 0xa1, 0x9d, 0xff, 0x34, 0xc7, 0xf4, 0xff,
  0x1f, 0xf7, 0xff, 0xff, 0x64, 0x62, 0xf4, 0xff, 0x23, 0xe8, 0xe2, 0xff,
  0xce, 0xfe, 0xe3, 0xff, 0x7c, 0x89, 0xed, 0xff, 0x5e, 0x80, 0xff, 0xff,
  0x04, 0x00, 0x00, 0x00, 0x36, 0x1b, 0x00, 0x00, 0x1a, 0xd6, 0xef, 0x1d,
  0xef, 0x1a, 0xe6, 0xef, 0xe3, 0x0a, 0xf9, 0x11, 0x07, 0x11, 0x0c, 0xef,
  0x11, 0x2a, 0x07, 0xf4, 0xea, 0x09, 0x0a, 0x11, 0x11, 0xf7, 0xef, 0x0c,
  0x0a, 0x03, 0x38, 0x11, 0x07, 0xf6, 0xf7, 0x55, 0x11, 0x07, 0xef, 0x11,
  0x0a, 0x11, 0xef, 0x0c, 0xdf, 0x09, 0xf6, 0xf7, 0xf7, 0x18, 0xf8, 0xfc,
  0xf8, 0x0d, 0x26, 0x1a, 0x1d, 0xe0, 0xef, 0x12, 0xef, 0xf9, 0x12, 0xe9,
  0xf7, 0xf1, 0xf7, 0x11, 0x08, 0xc7, 0xf7, 0x11, 0x09, 0xf9, 0x09, 0x1a,
  0xef, 0x09, 0xf6, 0x07, 0xef, 0x12, 0x09, 0xef, 0x11, 0x0c, 0xde, 0x1a,
  0xf3, 0xf9, 0x0e, 0x02, 0x01, 0xf1, 0x02, 0x11, 0x09, 0x03, 0x0c, 0x21,
  0x09, 0xf2, 0x06, 0xde, 0x0e, 0xf9, 0x0e, 0x0c, 0x0c, 0x0c, 0x12, 0xf9,
  0xef, 0x1a, 0xf7, 0xef, 0xef, 0x11, 0x07, 0x22, 0xe0, 0xef, 0x0a, 0x0b,
  0xf6, 0x0c, 0xf9, 0x0c, 0x1a, 0x0c, 0xdf, 0xf9, 0xf6, 0x0a, 0xef, 0xf4,
  0x09, 0xf8, 0xfd, 0xf9, 0x13, 0x1a, 0xf9, 0x09, 0x11, 0x06, 0xf6, 0xe6,
  0x0a, 0xf2, 0x04, 0x11, 0xf4, 0x0c, 0xf6, 0xf7, 0xe6, 0xf6, 0x0a, 0x09,
  0x09, 0xf7, 0xf9, 0x09, 0x02, 0x11, 0x0c, 0xf9, 0xfd, 0xe6, 0x1a, 0xf7,
  0x1b, 0x07, 0x13, 0x07, 0xf4, 0xf9, 0xf6, 0xf6, 0xf9, 0x09, 0x09, 0xef,
  0xf4, 0x1d, 0xe3, 0x1d, 0x11, 0x11, 0x11, 0xe3, 0xf9, 0x11, 0x11, 0xf7,
  0xc0, 0xf4, 0xe6, 0xef, 0xe3, 0x0c, 0x0c, 0x11, 0x09, 0xf8, 0x1d, 0x07,
  0xf4, 0xef, 0xe3, 0xf7, 0xd6, 0x0c, 0xf6, 0xe3, 0x11, 0xff, 0xe3, 0xdf,
  0xef, 0x1d, 0x0c, 0x22, 0x1b, 0xc8, 0xf7, 0x09, 0xe6, 0xef, 0xf9, 0xf7,
  0x09, 0x07, 0xef, 0xf9, 0x09, 0x13, 0x2a, 0x18, 0xda, 0xf4, 0xef, 0x07,
  0x08, 0xef, 0x09, 0x07, 0x01, 0x21, 0xe8, 0xef, 0x11, 0x40, 0x0a, 0x09,
  0xef, 0xf6, 0x09, 0xdf, 0x00, 0xea, 0xf7, 0x07, 0x0c, 0xef, 0x07, 0xf7,
  0x1a, 0x0c, 0xf4, 0x0c, 0xf9, 0xe6, 0x09, 0x11, 0x07, 0x22, 0xf6, 0xf7,
  0x0a, 0x11, 0xf4, 0x07, 0x11, 0x1d, 0xe6, 0xfd, 0xef, 0xf4, 0xe6, 0xf4,
  0xf4, 0xe0, 0xef, 0x03, 0x09, 0x11, 0xfe, 0xea, 0x09, 0xff, 0x01, 0x07,
  0xee, 0xe5, 0x11, 0xe6, 0x39, 0xff, 0x09, 0xe8, 0x1a, 0xed, 0xee, 0x04,
  0xe3, 0xff, 0xf6, 0x09, 0xed, 0xeb, 0x07, 0x11, 0xfa, 0x13, 0xf4, 0xef,
  0xd6, 0x0c, 0x07, 0x0c, 0xf4, 0xfd, 0xc7, 0x17, 0xf4, 0xd6, 0x21, 0x04,
  0xf4, 0xeb, 0xe3, 0x0c, 0xfe, 0xef, 0xf4, 0x11, 0x06, 0x1b, 0x01, 0x1a,
  0x09, 0xef, 0xf9, 0x20, 0xf7, 0xe6, 0x0a, 0xef, 0x11, 0x01, 0xe6, 0x0c,
  0xef, 0x07, 0x1a, 0xef, 0x11, 0xfd, 0x01, 0xeb, 0xe3, 0x22, 0x0e, 0x07,
  0xf4, 0x09, 0x11, 0xf4, 0x09, 0x0c, 0x07, 0x18, 0x09, 0xe9, 0x11, 0x11,
  0xed, 0xfc, 0xf7, 0x11, 0x1a, 0x0d, 0x07, 0x11, 0x2b, 0xfa, 0xe6, 0x09,
  0xf6, 0xf7, 0xef, 0x06, 0xe6, 0xf7, 0x07, 0x21, 0x21, 0x1b, 0xd4, 0x09,
  0xf1, 0xf3, 0x07, 0x06, 0xef, 0xf4, 0xf4, 0x01, 0xe6, 0xf9, 0xad, 0xef,
  0xee, 0x0c, 0x09, 0xd6, 0x0a, 0x21, 0xf7, 0xd6, 0x04, 0xfd, 0x11, 0xef,
  0x12, 0x18, 0xe3, 0x1b, 0xf1, 0x11, 0x38, 0xfc, 0x1d, 0x0c, 0xfd, 0x09,
  0xfe, 0xf7, 0x0f, 0x1a, 0xf7, 0x07, 0x11, 0xfa, 0xf9, 0xef, 0x11, 0x13,
  0xf8, 0x04, 0xf7, 0xf4, 0xef, 0xfc, 0xfd, 0xef, 0xea, 0x14, 0x04, 0x2c,
  0xf4, 0xd6, 0x02, 0x21, 0xff, 0x03, 0x09, 0x0a, 0x09, 0x0e, 0xfa, 0x16,
  0x0c, 0xf8, 0x12, 0xef, 0xf6, 0x09, 0x13, 0xef, 0x0a, 0xfd, 0x16, 0xf7,
  0x1d, 0x11, 0x0c, 0xf9, 0x09, 0xef, 0xfc, 0xff, 0xf6, 0x1a, 0x03, 0xf4,
  0x11, 0x0c, 0x1a, 0xea, 0xef, 0x02, 0x11, 0x22, 0xf9, 0xef, 0xf9, 0xff,
  0xfd, 0x16, 0x02, 0xe6, 0xe6, 0x0a, 0x18, 0x0a, 0x13, 0xed, 0x04, 0x02,
  0x0c, 0xef, 0x21, 0xf6, 0xed, 0x0c, 0xe3, 0xf1, 0xfc, 0x0e, 0x11, 0x2c,
  0x1d, 0xef, 0x07, 0xf7, 0xfc, 0x11, 0x09, 0xfb, 0xab, 0xf4, 0xfc, 0xef,
  0x16, 0xda, 0xf4, 0x02, 0x0c, 0x03, 0x11, 0x21, 0x08, 0xf8, 0x01, 0xef,
  0x07, 0x07, 0x1b, 0x02, 0xed, 0xef, 0xf6, 0x08, 0xfd, 0x11, 0x0b, 0xe5,
  0x0a, 0xef, 0xf9, 0x2c, 0xf7, 0xe6, 0x09, 0x09, 0xde, 0x07, 0x11, 0xe3,
  0xff, 0xf9, 0x09, 0xed, 0x0c, 0xf8, 0x0c, 0xe0, 0xf7, 0x1d, 0xf9, 0xc7,
  0xfb, 0x20, 0xf7, 0xec, 0xff, 0xfd, 0xed, 0x13, 0x13, 0xef, 0xf4, 0x0c,
  0x0e, 0xf9, 0xe3, 0x1d, 0xf6, 0x03, 0x22, 0x09, 0xe8, 0x15, 0xf9, 0xef,
  0x05, 0xf8, 0xf6, 0x21, 0x05, 0xff, 0x03, 0x11, 0x18, 0x11, 0x11, 0xf4,
  0x03, 0x0a, 0x11, 0xf6, 0x09, 0x18, 0x21, 0x40, 0x1a, 0xee, 0x13, 0xff,
  0xe3, 0xed, 0x21, 0x0c, 0x11, 0x02, 0x0a, 0xef, 0x20, 0xf6, 0x11, 0xef,
  0xe3, 0x0a, 0xf4, 0x13, 0xfa, 0x0d, 0x1d, 0x0c, 0xeb, 0xfd, 0x07, 0xf4,
  0x09, 0xf3, 0xef, 0xe8, 0x03, 0xfd, 0xef, 0x11, 0x04, 0xd6, 0xf1, 0x0c,
  0x11, 0xf2, 0x0a, 0x11, 0xf4, 0xef, 0x08, 0xf7, 0xf7, 0x1b, 0xf1, 0x07,
  0x15, 0xef, 0x08, 0x11, 0xf4, 0xfd, 0xf4, 0xf9, 0x0a, 0x04, 0xfd, 0x03,
  0xf3, 0x11, 0xe5, 0x0c, 0xd6, 0x09, 0xf9, 0x05, 0x03, 0x2c, 0x02, 0xde,
  0x0c, 0xe5, 0x40, 0xda, 0x01, 0x07, 0x2a, 0x02, 0x2c, 0x40, 0x07, 0x09,
  0x09, 0x06, 0xf6, 0x0d, 0x0e, 0xf7, 0x0e, 0x13, 0xfb, 0x02, 0x11, 0xef,
  0x07, 0x0e, 0xe5, 0x21, 0x20, 0x11, 0x07, 0xd6, 0xf8, 0x11, 0x14, 0x16,
  0xef, 0xf4, 0x02, 0x1a, 0x11, 0x09, 0xf6, 0xe8, 0x15, 0xf7, 0x09, 0xf7,
  0xef, 0x11, 0x11, 0x11, 0x0d, 0xfa, 0xf7, 0x22, 0x07, 0x07, 0x07, 0xf7,
  0xf4, 0xf4, 0xf1, 0x0a, 0xfc, 0x0c, 0x11, 0xf6, 0xea, 0x10, 0x07, 0x39,
  0xe3, 0x11, 0xe8, 0x02, 0x11, 0x11, 0xef, 0xf9, 0xf6, 0xf6, 0xf9, 0x08,
  0xf2, 0x1d, 0xe8, 0xe8, 0xef, 0xef, 0x09, 0x0c, 0xf6, 0x07, 0xed, 0x03,
  0xd4, 0xf6, 0x1a, 0x11, 0x1a, 0xc7, 0xef, 0xf9, 0x1d, 0x13, 0x0f, 0x01,
  0x0f, 0xf8, 0x1d, 0x01, 0x17, 0x22, 0xf7, 0x21, 0x11, 0xef, 0x0a, 0x09,
  0x1a, 0x03, 0xe3, 0x0a, 0x07, 0x04, 0xf9, 0xfd, 0x07, 0xf6, 0xf7, 0x04,
  0xf8, 0xe0, 0x1d, 0xf4, 0xf6, 0xec, 0x1a, 0xf9, 0xe0, 0xf6, 0xfd, 0xef,
  0x11, 0xe3, 0xea, 0x02, 0x1d, 0xf6, 0xda, 0xf9, 0x11, 0xf1, 0x11, 0xf6,
  0xf7, 0x02, 0x1a, 0x13, 0xc7, 0xe6, 0x0c, 0xf9, 0xfd, 0x11, 0x11, 0x11,
  0xff, 0xf9, 0xef, 0x06, 0xfa, 0x0a, 0xfb, 0xfc, 0xe6, 0xf7, 0x10, 0xc0,
  0x08, 0x09, 0xf7, 0x11, 0x0f, 0xf7, 0x06, 0x13, 0x09, 0x06, 0x04, 0x1d,
  0x09, 0x11, 0x07, 0xe5, 0x07, 0xf6, 0x1d, 0xf6, 0xf4, 0x18, 0xfe, 0x11,
  0x2c, 0x0a, 0xe6, 0x1d, 0xf6, 0xda, 0xfe, 0x1d, 0xf4, 0x11, 0x1d, 0xf4,
  0xf7, 0xe0, 0x04, 0xf9, 0x0c, 0x08, 0x07, 0xf7, 0xef, 0x16, 0xf3, 0xf4,
  0xfc, 0xdf, 0xf8, 0x11, 0x09, 0x13, 0x0c, 0x0c, 0x0c, 0xef, 0x09, 0xe6,
  0x2a, 0x2a, 0xf6, 0x11, 0x11, 0xe8, 0xf1, 0x08, 0xf1, 0xff, 0x2a, 0x03,
  0x20, 0xd6, 0xc7, 0xe3, 0xdf, 0x00, 0xdf, 0x0a, 0x11, 0x2a, 0x21, 0x1d,
  0xfe, 0x0c, 0x1a, 0xf1, 0xda, 0x1b, 0x09, 0x01, 0xef, 0x18, 0x0a, 0x1a,
  0x09, 0x04, 0xef, 0xe6, 0x0d, 0x0a, 0x0c, 0xf7, 0xe6, 0x0f, 0xf7, 0xf2,
  0x11, 0xdf, 0xc0, 0x0c, 0xf4, 0x04, 0x2a, 0x1a, 0xf7, 0xe6, 0x0c, 0x07,
  0xde, 0xef, 0xfa, 0xf7, 0xfc, 0x11, 0xef, 0x09, 0x18, 0x18, 0x1d, 0x11,
  0xf8, 0xf7, 0xef, 0xf4, 0xe5, 0x0a, 0xf4, 0xf2, 0xff, 0xf4, 0xf9, 0xef,
  0x07, 0xe0, 0xdf, 0x06, 0xeb, 0xec, 0x1d, 0xef, 0x09, 0xe3, 0xf4, 0x09,
  0x06, 0xfa, 0x0c, 0x11, 0x07, 0x11, 0xe3, 0x0f, 0x03, 0xe3, 0x2c, 0x09,
  0x0c, 0xf9, 0x11, 0x13, 0x11, 0xfa, 0x18, 0x21, 0x21, 0x11, 0x09, 0x12,
  0xf3, 0x00, 0xef, 0x0c, 0xef, 0xe8, 0x0f, 0xf7, 0x0c, 0xe6, 0xf9, 0x26,
  0xfd, 0xc7, 0xf8, 0xfc, 0xef, 0xef, 0xdf, 0xf1, 0x21, 0x09, 0xff, 0xe6,
  0xf9, 0x08, 0xe8, 0xe0, 0xef, 0xf9, 0x0c, 0xf7, 0x09, 0x09, 0x09, 0x0c,
  0xf4, 0xe5, 0xf7, 0xf8, 0x15, 0xef, 0xf8, 0x05, 0x08, 0x09, 0xf6, 0xd6,
  0xf8, 0xf2, 0x06, 0x0c, 0x07, 0x08, 0x15, 0x1a, 0xf6, 0x0c, 0xe3, 0xf7,
  0x13, 0xef, 0xf6, 0xef, 0x11, 0x1d, 0x01, 0xef, 0xe3, 0xef, 0x11, 0xe0,
  0x09, 0xc0, 0xec, 0x01, 0xef, 0xf9, 0x0a, 0x1a, 0xf7, 0xf4, 0x07, 0x09,
  0x20, 0xef, 0x1a, 0xc7, 0x1d, 0xf7, 0x1a, 0x11, 0xe6, 0x1d, 0xea, 0xef,
  0xf7, 0xef, 0x0c, 0xfc, 0xfd, 0x07, 0x1a, 0xd4, 0x0a, 0x0c, 0xfe, 0xf4,
  0xf9, 0x12, 0xdf, 0x21, 0xe3, 0x1d, 0x09, 0xdf, 0xf4, 0x09, 0xdf, 0xf9,
  0x01, 0xef, 0x15, 0xf9, 0xe3, 0xfc, 0x0c, 0x2a, 0xf6, 0x09, 0xc0, 0x0c,
  0x1a, 0xf7, 0xf4, 0x2c, 0xea, 0xf6, 0xfe, 0xed, 0x0c, 0x09, 0x11, 0xf9,
  0x02, 0x11, 0x0e, 0x0c, 0xf6, 0xf1, 0xc0, 0xef, 0x08, 0xfa, 0xf4, 0xf7,
  0xf2, 0xf2, 0x0f, 0x0c, 0x1d, 0x0c, 0xe6, 0x0d, 0xe8, 0xf7, 0xf9, 0xf7,
  0x11, 0x09, 0x2b, 0xed, 0xfe, 0xf7, 0x1d, 0x06, 0xf7, 0x0c, 0x1d, 0xf9,
  0x06, 0x11, 0xf9, 0xe8, 0x11, 0xf2, 0xf7, 0xf7, 0x07, 0x01, 0x0b, 0x06,
  0x01, 0x04, 0x09, 0xef, 0x11, 0x0c, 0xf7, 0x0c, 0x01, 0xe5, 0xef, 0x0e,
  0xfc, 0x05, 0xee, 0x03, 0x12, 0xf2, 0xf9, 0xf6, 0xf9, 0x09, 0xef, 0xf6,
  0xf7, 0xf9, 0xef, 0xf6, 0xf4, 0x09, 0x1a, 0xf9, 0xe3, 0xef, 0x0a, 0x11,
  0x1d, 0xf6, 0xee, 0x09, 0x0c, 0x11, 0x09, 0x0a, 0x11, 0xed, 0x09, 0xe3,
  0x11, 0x1a, 0x09, 0xf6, 0x09, 0x07, 0x1a, 0xf9, 0x07, 0xf4, 0xef, 0xe3,
  0x09, 0xe6, 0xe3, 0xf1, 0xe6, 0x1d, 0xef, 0xef, 0x07, 0xf6, 0xf4, 0xf9,
  0x0c, 0xe6, 0x1d, 0xf6, 0x03, 0xe6, 0xf4, 0x1d, 0xe6, 0x11, 0x11, 0xe6,
  0x07, 0xf6, 0x07, 0xf6, 0xf7, 0x11, 0x1d, 0xf4, 0xf4, 0xf7, 0xf7, 0xe3,
  0x22, 0x09, 0xea, 0xf4, 0xf4, 0xf4, 0xf7, 0x0c, 0xef, 0x1a, 0x13, 0xe3,
  0xef, 0x11, 0x0a, 0xe6, 0x1a, 0xf9, 0xf4, 0xe6, 0xea, 0x09, 0xf7, 0x11,
  0x1d, 0x0a, 0xf4, 0xf4, 0x07, 0x0c, 0xef, 0x11, 0x07, 0xf6, 0xf1, 0x07,
  0x1d, 0xe6, 0x1d, 0xf7, 0x11, 0x1d, 0xf7, 0xf9, 0x07, 0xe3, 0x0c, 0x07,
  0xf4, 0xf2, 0xf4, 0xf4, 0x0c, 0x07, 0x11, 0xe6, 0x11, 0xe3, 0xef, 0x09,
  0xf9, 0xef, 0x0a, 0xf4, 0xf7, 0x11, 0xf4, 0x0a, 0xe8, 0x1a, 0xf7, 0xf9,
  0x11, 0xef, 0x09, 0xe3, 0x09, 0x11, 0x11, 0xef, 0xf9, 0x07, 0x11, 0xef,
  0x09, 0xef, 0x0c, 0x1d, 0xfd, 0xf7, 0xef, 0x11, 0xf4, 0x09, 0x1a, 0x0a,
  0xed, 0x09, 0x15, 0xf6, 0xe5, 0xed, 0x11, 0x04, 0xed, 0x11, 0xea, 0x11,
  0x11, 0x11, 0xef, 0xef, 0x02, 0x09, 0x04, 0xe3, 0x11, 0x09, 0xf4, 0xf4,
  0xfe, 0xf7, 0x11, 0x0c, 0x18, 0x11, 0xf5, 0xe3, 0xf7, 0x09, 0xf9, 0x1a,
  0x11, 0xe8, 0x07, 0xe6, 0x11, 0xe5, 0xf9, 0x07, 0x0c, 0xfd, 0xed, 0x16,
  0x0c, 0xf9, 0xfe, 0xfb, 0x09, 0x07, 0xf4, 0xf9, 0x0c, 0xfd, 0xef, 0xe0,
  0x20, 0x40, 0x11, 0x0c, 0xef, 0x0a, 0xff, 0xef, 0xf4, 0x1a, 0xfe, 0x05,
  0x11, 0x0f, 0xf2, 0xf7, 0xff, 0xf4, 0x09, 0x02, 0x01, 0xf7, 0xf7, 0xf6,
  0xf7, 0x0c, 0xf4, 0xe3, 0x03, 0xef, 0xef, 0x1a, 0xef, 0xf6, 0x11, 0x0c,
  0xe6, 0xfb, 0x1b, 0x09, 0x08, 0x11, 0x11, 0xef, 0xf9, 0x07, 0x01, 0x11,
  0xf7, 0x1d, 0xf4, 0xea, 0xef, 0x07, 0xde, 0xf1, 0xfd, 0xf6, 0xf7, 0xed,
  0xef, 0x17, 0xd6, 0xf9, 0xfd, 0xef, 0x09, 0xef, 0x0e, 0xf9, 0xe6, 0x13,
  0x1a, 0xf9, 0xf8, 0x08, 0x0a, 0xf7, 0x0c, 0x09, 0x07, 0x13, 0x11, 0x1d,
  0xef, 0xf4, 0x2c, 0xf8, 0x2c, 0xef, 0x11, 0xf7, 0x11, 0x01, 0x09, 0xf1,
  0x09, 0x21, 0x1a, 0xef, 0xf9, 0x0c, 0x21, 0xf4, 0x0e, 0xea, 0x0c, 0xf7,
  0xf4, 0x0d, 0x06, 0xef, 0xf7, 0x11, 0x11, 0x12, 0xef, 0x21, 0xf6, 0xef,
  0x07, 0x02, 0x18, 0xf6, 0x11, 0x09, 0xe0, 0xc8, 0xf7, 0xf6, 0x0c, 0xf1,
  0x0a, 0xee, 0xe6, 0x38, 0x01, 0xef, 0xfc, 0x1d, 0x09, 0xfb, 0x1d, 0x07,
  0xf3, 0x40, 0xfb, 0xec, 0xea, 0x11, 0xda, 0xed, 0xea, 0x11, 0xfe, 0xf9,
  0xf4, 0xf6, 0xf9, 0x09, 0xf6, 0x18, 0xf0, 0x1d, 0xee, 0x0d, 0x09, 0xd6,
  0x11, 0xf6, 0x0c, 0x11, 0x2a, 0x18, 0x11, 0xf4, 0xf4, 0x21, 0xf2, 0xf6,
  0x1d, 0x09, 0x09, 0x04, 0xfa, 0xef, 0xe6, 0x21, 0x03, 0xf4, 0xf2, 0x11,
  0xf9, 0xc0, 0x01, 0x13, 0x09, 0x0a, 0x18, 0xfe, 0x12, 0x11, 0x0c, 0xfe,
  0x0c, 0xf7, 0xf7, 0x0a, 0xf9, 0x11, 0x0d, 0x08, 0x11, 0xf4, 0x0c, 0x11,
  0x11, 0x08, 0xf3, 0xf9, 0x0a, 0xe6, 0xe8, 0xef, 0x1d, 0x1d, 0x09, 0xe3,
  0xfb, 0xfa, 0x03, 0x0d, 0x01, 0xf4, 0xde, 0xef, 0x21, 0x0c, 0xef, 0x09,
  0xef, 0x11, 0xef, 0xf7, 0x07, 0xf7, 0x0c, 0x07, 0xef, 0x11, 0x1a, 0xe6,
  0x11, 0x1d, 0xf7, 0xe8, 0xf7, 0xef, 0xf4, 0xf9, 0x1a, 0x11, 0xf9, 0xfe,
  0xe6, 0xe8, 0x11, 0xef, 0xf9, 0x07, 0xf7, 0xf7, 0x07, 0x0c, 0xe3, 0x1d,
  0x09, 0x18, 0x1a, 0x21, 0x1d, 0xf6, 0xef, 0xf4, 0xef, 0x0c, 0x0a, 0x0c,
  0x09, 0xf9, 0xf4, 0xf6, 0xf6, 0x11, 0xf4, 0xf9, 0x09, 0x39, 0xe6, 0xe6,
  0xf9, 0xef, 0x11, 0x11, 0x1d, 0xef, 0xef, 0x1d, 0x0c, 0xdf, 0x07, 0xf4,
  0x11, 0x07, 0xf7, 0xef, 0xf9, 0x0c, 0xe6, 0xf9, 0xf7, 0xef, 0x11, 0xf6,
  0xe3, 0x07, 0xef, 0x11, 0xf6, 0xfa, 0xef, 0xf7, 0x1a, 0x0c, 0xf4, 0x09,
  0x11, 0xef, 0x07, 0xc0, 0x1a, 0x0a, 0xef, 0x11, 0x1a, 0x0c, 0xef, 0x11,
  0x11, 0xf7, 0x11, 0x2a, 0x11, 0xf6, 0x0a, 0x09, 0x0c, 0x0a, 0xe3, 0x0c,
  0x09, 0xf9, 0xef, 0x1a, 0x0c, 0xe3, 0x1d, 0xef, 0x07, 0x1d, 0x0e, 0x11,
  0x07, 0x11, 0x0c, 0xe3, 0x11, 0xef, 0x11, 0x1d, 0xe3, 0x39, 0x07, 0x11,
  0xf4, 0xfd, 0x1d, 0x11, 0xf7, 0x07, 0xef, 0x00, 0x11, 0x04, 0x0c, 0x0c,
  0xf7, 0x11, 0x1d, 0x0c, 0xef, 0x11, 0x26, 0xf9, 0xe3, 0x09, 0xf4, 0x0c,
  0x11, 0xe3, 0x11, 0x11, 0x03, 0x11, 0x11, 0x11, 0x11, 0x38, 0x17, 0x11,
  0x11, 0xf7, 0x1a, 0x07, 0x0c, 0x1d, 0x0c, 0x07, 0x11, 0x1d, 0xd4, 0xe6,
  0x11, 0xf4, 0x11, 0x18, 0x11, 0xfb, 0xf7, 0xf4, 0xf4, 0xf9, 0x0c, 0x09,
  0x07, 0xe3, 0x09, 0xed, 0x38, 0x16, 0xe8, 0x38, 0x07, 0x11, 0xfc, 0xef,
  0xe6, 0x1d, 0x11, 0xed, 0x11, 0x14, 0x1d, 0x07, 0xf9, 0x09, 0xe3, 0xf7,
  0xf4, 0x09, 0xf4, 0xe6, 0x11, 0x0c, 0x11, 0xfb, 0xef, 0x06, 0x0c, 0xff,
  0xd4, 0xf6, 0x1d, 0x0c, 0xef, 0x16, 0x1d, 0xef, 0x1a, 0x11, 0x1a, 0x09,
  0x1d, 0x09, 0x13, 0x09, 0xef, 0x16, 0xe6, 0x1a, 0x11, 0x11, 0x11, 0x1a,
  0x09, 0x08, 0xf7, 0xf4, 0x2c, 0xe3, 0xe3, 0x03, 0x16, 0xfb, 0xef, 0x09,
  0x07, 0xef, 0x11, 0x09, 0x1d, 0xef, 0xf1, 0x11, 0x0c, 0xf4, 0x21, 0x09,
  0xf6, 0xf4, 0xf4, 0xef, 0x11, 0xe6, 0xe6, 0xef, 0xef, 0xef, 0xfd, 0xef,
  0x0b, 0x1a, 0xf4, 0x07, 0xf6, 0x09, 0xea, 0x13, 0x09, 0xea, 0xfe, 0xe3,
  0xef, 0x2c, 0x0c, 0xf4, 0x17, 0x09, 0xd5, 0x09, 0x2a, 0x26, 0x09, 0x04,
  0x0a, 0x0c, 0xff, 0xf2, 0xd4, 0xdf, 0x1a, 0xf7, 0xf7, 0x04, 0x03, 0x1a,
  0xef, 0xed, 0x09, 0xd4, 0xe0, 0x0c, 0xec, 0xf7, 0x04, 0xe3, 0x18, 0xdf,
  0xf9, 0xef, 0xfe, 0x12, 0xf7, 0xe6, 0xef, 0x11, 0xdf, 0xfa, 0xef, 0xef,
  0xea, 0xe6, 0x09, 0x22, 0xf9, 0xe3, 0x0f, 0x02, 0xf9, 0xf7, 0x04, 0xf9,
  0x0c, 0x0c, 0xf9, 0x08, 0x0c, 0x04, 0xdf, 0x1d, 0xf9, 0xeb, 0xe6, 0x11,
  0xf4, 0xfd, 0x1a, 0xf4, 0x07, 0xf6, 0x04, 0x18, 0xfd, 0x2a, 0xf1, 0x0c,
  0xed, 0xef, 0x11, 0x2c, 0x12, 0xfc, 0x0c, 0x11, 0x03, 0x09, 0xf4, 0xf9,
  0x13, 0x05, 0x11, 0xc8, 0x11, 0xf6, 0x0c, 0x09, 0xef, 0xfe, 0x03, 0x09,
  0x0c, 0xf6, 0xfd, 0x0a, 0xef, 0xd6, 0x07, 0x11, 0x21, 0xfe, 0xef, 0xf7,
  0x21, 0x11, 0x07, 0x06, 0x11, 0x0c, 0x11, 0x07, 0xf1, 0xf4, 0xd6, 0x09,
  0xe8, 0xf2, 0xf9, 0x09, 0x12, 0xfe, 0xf7, 0x39, 0xf4, 0xe3, 0x14, 0x48,
  0xdf, 0x09, 0xef, 0xf8, 0x11, 0xfd, 0xf9, 0x0c, 0x0c, 0x09, 0xf9, 0xe0,
  0xf9, 0x1d, 0x21, 0x0a, 0xf3, 0xef, 0xf9, 0x02, 0xf6, 0xfb, 0xef, 0xf9,
  0xef, 0x09, 0xf9, 0xf7, 0x11, 0x0c, 0xf6, 0xf4, 0x11, 0x1b, 0xff, 0xf4,
  0x09, 0xe3, 0xef, 0xf7, 0x08, 0x04, 0x18, 0x11, 0xf7, 0x0f, 0xf7, 0x11,
  0x0c, 0x0c, 0x09, 0xf4, 0x11, 0xef, 0xf4, 0xf7, 0x0c, 0x21, 0x07, 0xf4,
  0xef, 0xfe, 0xf9, 0x09, 0x0d, 0xf7, 0x11, 0xeb, 0x11, 0x1d, 0xe6, 0x11,
  0xf6, 0xe6, 0x0c, 0xd6, 0x11, 0x0a, 0x09, 0xef, 0xef, 0x16, 0x11, 0xe3,
  0x02, 0xff, 0xef, 0x11, 0xea, 0x08, 0xf4, 0x11, 0x1d, 0xe5, 0xf9, 0x07,
  0xf7, 0xf6, 0x0c, 0x11, 0xc8, 0x0f, 0x11, 0xfc, 0x1d, 0xef, 0xf4, 0xe3,
  0xf8, 0xf8, 0xf4, 0xf7, 0x2a, 0x22, 0xef, 0x1a, 0xef, 0xf2, 0xe3, 0x1d,
  0x06, 0x22, 0x13, 0xf6, 0x09, 0x1d, 0x11, 0x15, 0xf9, 0x07, 0xfd, 0x04,
  0xdf, 0x05, 0x11, 0xf6, 0xf9, 0x09, 0xf7, 0x11, 0x09, 0xe9, 0xd6, 0xf4,
  0xe0, 0xef, 0xf7, 0x2c, 0xf4, 0xd4, 0xfc, 0x21, 0xe6, 0x09, 0xe3, 0xd6,
  0xf9, 0x09, 0x11, 0x0a, 0x11, 0xef, 0x09, 0xef, 0x07, 0xef, 0x07, 0xe6,
  0x07, 0xf4, 0xe6, 0xf6, 0xf4, 0xf6, 0xf9, 0x0c, 0xef, 0x09, 0xf4, 0xf6,
  0x0c, 0x11, 0x09, 0x07, 0xf6, 0x11, 0xe3, 0xf9, 0x11, 0xef, 0x11, 0xef,
  0x09, 0x0c, 0x09, 0x0c, 0xf9, 0xe3, 0x0c, 0xe6, 0xef, 0xf4, 0x1a, 0x07,
  0x09, 0x11, 0x11, 0x11, 0x1d, 0xf9, 0xe3, 0x0a, 0xf4, 0x11, 0xef, 0x11,
  0x0a, 0xf4, 0xef, 0x11, 0x07, 0x11, 0xf7, 0x11, 0xf7, 0x0c, 0xef, 0x0a,
  0xf4, 0xf9, 0x0c, 0x1d, 0x1a, 0xf4, 0x09, 0xf9, 0x1d, 0x0a, 0xe6, 0x0c,
  0x07, 0x18, 0x0c, 0xf7, 0x0c, 0x11, 0xf9, 0xf6, 0x1d, 0x09, 0xef, 0x07,
  0x1a, 0xef, 0xef, 0x09, 0xf6, 0xf7, 0x1d, 0xef, 0x09, 0xf9, 0xef, 0x0a,
  0x0c, 0x11, 0x09, 0xef, 0x07, 0x11, 0xe6, 0x11, 0x0c, 0xe3, 0xef, 0xe3,
  0xf6, 0x11, 0x0c, 0x0a, 0x0a, 0xe3, 0x11, 0xf4, 0x0c, 0x09, 0xe3, 0x09,
  0xe3, 0xf4, 0xf4, 0x0c, 0xef, 0x1a, 0xef, 0x09, 0x03, 0xef, 0xf8, 0xfe,
  0x2a, 0x38, 0xff, 0x09, 0xeb, 0xf9, 0x13, 0xe8, 0xe5, 0xee, 0xff, 0x1d,
  0x20, 0xef, 0x0c, 0x11, 0xef, 0xdf, 0x21, 0xef, 0xf6, 0xea, 0x01, 0x11,
  0x09, 0x11, 0xff, 0xef, 0x39, 0x09, 0x0e, 0xf6, 0x0c, 0xe6, 0xdf, 0xf6,
  0x13, 0x1d, 0x13, 0xe8, 0xf2, 0xf1, 0x11, 0xf9, 0xf6, 0xea, 0xf7, 0x11,
  0xf2, 0x0a, 0xdf, 0xfc, 0x09, 0xef, 0x08, 0xf4, 0xf9, 0x1a, 0x0a, 0x03,
  0x11, 0x1b, 0x39, 0x11, 0xf0, 0x11, 0x15, 0xe3, 0x11, 0x11, 0x0a, 0x09,
  0xf9, 0x07, 0x01, 0x11, 0xee, 0xed, 0x21, 0x09, 0x2a, 0x05, 0xf1, 0x00,
  0xf7, 0xfd, 0x0e, 0x11, 0xf7, 0x11, 0xf7, 0x07, 0xf7, 0xf7, 0xc0, 0x1a,
  0x09, 0x13, 0x1a, 0xe3, 0x20, 0x13, 0x0a, 0xe5, 0x0c, 0xdf, 0xf7, 0x11,
  0x11, 0x07, 0xf6, 0x05, 0x08, 0xf4, 0x0f, 0xde, 0xf4, 0x11, 0xfd, 0x07,
  0xf7, 0xe6, 0xe3, 0xdf, 0x11, 0x0a, 0x1d, 0x09, 0xf9, 0xdf, 0x07, 0xf7,
  0x0c, 0xf7, 0xf4, 0xef, 0xf6, 0xf4, 0xe6, 0xd4, 0x1d, 0x11, 0x11, 0x0c,
  0x11, 0xf7, 0xf9, 0xf4, 0xe3, 0x09, 0xf9, 0x0f, 0xe3, 0x0c, 0xf4, 0x0c,
  0x07, 0x0c, 0x0a, 0x0a, 0xf9, 0xf6, 0x11, 0xf7, 0xf7, 0x22, 0xd6, 0x0c,
  0x0c, 0x02, 0x01, 0x11, 0x0c, 0x2c, 0x11, 0xd4, 0xef, 0x11, 0x1a, 0x09,
  0xf4, 0xf7, 0x11, 0xdf, 0x1b, 0x13, 0x09, 0x0c, 0xef, 0xf9, 0xef, 0x07,
  0xef, 0x11, 0x07, 0x0a, 0xe3, 0xc8, 0x09, 0xf9, 0x11, 0x11, 0x11, 0xe6,
  0x09, 0x03, 0xf6, 0x07, 0xef, 0xef, 0xef, 0x0c, 0x11, 0xf9, 0xef, 0xf6,
  0xfd, 0x07, 0xf4, 0x0c, 0x1d, 0x1a, 0xf6, 0x09, 0x11, 0xf6, 0xf4, 0xef,
  0x0a, 0x1a, 0x09, 0x11, 0xe6, 0x09, 0xf9, 0xf7, 0x1a, 0xc7, 0xef, 0xe3,
  0xf9, 0xf6, 0xf9, 0xf9, 0x11, 0x0a, 0x0c, 0x2a, 0x1a, 0x09, 0x1d, 0x11,
  0xf4, 0xef, 0x07, 0x13, 0xef, 0x09, 0xf9, 0xf4, 0x0a, 0xf2, 0xf4, 0x09,
  0xe3, 0x1a, 0x11, 0xf7, 0x11, 0x07, 0x0a, 0x11, 0x0c, 0xda, 0x09, 0x11,
  0xf9, 0x11, 0xf6, 0x07, 0xe3, 0xe3, 0xf4, 0x1a, 0x0f, 0x26, 0x05, 0xe6,
  0xfa, 0x01, 0xf7, 0xf2, 0x09, 0xf7, 0xe6, 0x05, 0x20, 0x0c, 0xfd, 0xfd,
  0xe3, 0x0a, 0xe3, 0x02, 0x03, 0x1d, 0xf2, 0xf6, 0x04, 0xd4, 0xf8, 0x11,
  0x12, 0x11, 0xef, 0xf9, 0x09, 0xdf, 0xf4, 0x1d, 0x11, 0x0e, 0xf7, 0xf7,
  0xef, 0x21, 0x04, 0x07, 0xfb, 0x11, 0xfd, 0x0d, 0x11, 0xe3, 0xf4, 0xef,
  0xd6, 0x0f, 0x13, 0x1a, 0x0a, 0x21, 0x09, 0x03, 0x11, 0xfe, 0x17, 0x09,
  0x0c, 0x04, 0x09, 0x03, 0x11, 0x11, 0xe8, 0xff, 0xd6, 0x0c, 0xe8, 0xf4,
  0x07, 0x11, 0xf3, 0xf9, 0x09, 0x11, 0x07, 0x21, 0xef, 0x07, 0x21, 0xe6,
  0x09, 0xf4, 0x13, 0xdf, 0x21, 0x0e, 0xfd, 0x11, 0x0c, 0xf2, 0xfd, 0xf4,
  0xf7, 0x09, 0x0c, 0xf8, 0x11, 0xe3, 0x08, 0xe3, 0xf1, 0x1b, 0x11, 0x11,
  0xf7, 0x0a, 0xed, 0x16, 0x1d, 0x11, 0x02, 0xe3, 0xd4, 0xe5, 0x02, 0xf2,
  0x00, 0xe6, 0x11, 0x13, 0x01, 0xf8, 0xd4, 0x07, 0xc7, 0xc8, 0x07, 0xdf,
  0x0c, 0xf6, 0xf4, 0x11, 0x1d, 0x01, 0xea, 0x11, 0xf4, 0x1a, 0x0a, 0x18,
  0xf7, 0x38, 0x09, 0x26, 0xf7, 0x13, 0x0a, 0xef, 0xe3, 0xf6, 0x1d, 0xf4,
  0xef, 0x1a, 0xef, 0xe3, 0x11, 0xf9, 0xf4, 0x0a, 0xf6, 0xf4, 0xf7, 0x0a,
  0x1d, 0xf9, 0xf7, 0x11, 0xf7, 0x09, 0xf9, 0x0a, 0x1a, 0xe3, 0x1d, 0xf4,
  0xe6, 0xc8, 0x09, 0x07, 0x1d, 0xd4, 0x11, 0x0a, 0x0a, 0x0c, 0x11, 0x11,
  0x1a, 0x0a, 0xef, 0x1d, 0xe6, 0xef, 0x09, 0xf9, 0x1a, 0x0c, 0x07, 0xef,
  0xe3, 0xe6, 0x07, 0xf7, 0x03, 0xf9, 0x0a, 0xef, 0x11, 0xef, 0x1a, 0xef,
  0x09, 0x09, 0x09, 0xe5, 0xeb, 0xf7, 0xf4, 0xf9, 0x11, 0xf9, 0xe6, 0x11,
  0x2c, 0xe3, 0xf4, 0x18, 0xf7, 0x09, 0x09, 0x0c, 0x11, 0xef, 0xf6, 0x0c,
  0xf4, 0x09, 0x04, 0x11, 0x0a, 0x11, 0xf6, 0xe3, 0x09, 0xef, 0xef, 0xf9,
  0xf6, 0xf6, 0xf6, 0x11, 0xf9, 0x07, 0xf7, 0x09, 0xe6, 0x11, 0xf9, 0xef,
  0x1a, 0x09, 0xf4, 0x08, 0xf9, 0xf6, 0x0c, 0x08, 0x07, 0x1a, 0xe3, 0xc8,
  0xef, 0x11, 0x0c, 0x11, 0x0a, 0xe6, 0x1d, 0x09, 0xf7, 0xf7, 0xfc, 0xed,
  0xf9, 0x03, 0x11, 0xf4, 0xe3, 0x11, 0xec, 0x1d, 0x05, 0xfd, 0xf7, 0x0e,
  0x21, 0x16, 0x18, 0xfc, 0x06, 0xef, 0xf9, 0x12, 0x08, 0xe5, 0xfd, 0xe6,
  0xef, 0x21, 0x02, 0x11, 0xf3, 0x2c, 0x20, 0x11, 0x1d, 0xfe, 0xe3, 0xfd,
  0xfc, 0xff, 0x07, 0x09, 0x11, 0x07, 0xef, 0xf4, 0xfd, 0xd6, 0x18, 0x09,
  0x0c, 0xf6, 0x20, 0xf4, 0xe0, 0xeb, 0xef, 0xef, 0x09, 0x09, 0x1b, 0x1a,
  0xef, 0xf4, 0xef, 0x06, 0xfb, 0x04, 0xf4, 0xf9, 0xef, 0xfb, 0xf7, 0xf4,
  0xef, 0xe5, 0xfe, 0xfd, 0x2c, 0x0a, 0x07, 0xe3, 0xf2, 0x02, 0xf7, 0xe6,
  0xdf, 0x11, 0x18, 0x11, 0xf6, 0xfc, 0xed, 0xef, 0xfc, 0x09, 0x16, 0x01,
  0xed, 0xf9, 0x02, 0x07, 0xe6, 0xf7, 0x1a, 0x1d, 0xf8, 0x1a, 0xef, 0xf9,
  0xdf, 0xf6, 0xf7, 0x0c, 0xf4, 0xe8, 0xee, 0x11, 0xf9, 0x03, 0x09, 0x11,
  0x03, 0x13, 0x1a, 0x08, 0xf6, 0x0c, 0xf6, 0xe3, 0xf6, 0x21, 0xf4, 0xf7,
  0xf7, 0x09, 0x07, 0xef, 0x11, 0x1d, 0xf7, 0xef, 0xf7, 0x07, 0xf9, 0x18,
  0x09, 0xe3, 0xf6, 0xef, 0xe6, 0xf9, 0x09, 0xf7, 0x11, 0xe6, 0xef, 0xef,
  0x07, 0x07, 0x0a, 0xf4, 0x09, 0xef, 0xf4, 0xf7, 0xf7, 0x11, 0xe3, 0xf7,
  0x1d, 0xe3, 0x11, 0xef, 0xef, 0x2a, 0x0c, 0xf6, 0x11, 0xf4, 0xd4, 0x1a,
  0xe6, 0x0f, 0xf4, 0x1d, 0xef, 0x1a, 0xf4, 0x11, 0xf7, 0xe6, 0xf9, 0xe6,
  0xf9, 0x11, 0xf7, 0xdf, 0xe3, 0xef, 0xf7, 0xef, 0x11, 0x22, 0x1a, 0xf7,
  0xec, 0x1d, 0xe6, 0x11, 0x09, 0x09, 0x09, 0x09, 0x07, 0xf9, 0xf4, 0x0c,
  0x07, 0xf4, 0xf6, 0x13, 0xe3, 0x1a, 0xf6, 0xf6, 0xe3, 0xe8, 0x1d, 0x1a,
  0x11, 0x1a, 0x1a, 0x0c, 0x0c, 0xf9, 0xf4, 0x14, 0x09, 0xfc, 0x11, 0xef,
  0xef, 0xf7, 0x11, 0x1d, 0x11, 0xf4, 0xe3, 0x09, 0x07, 0x0c, 0x11, 0xef,
  0xe3, 0x07, 0xf7, 0xe8, 0xf4, 0x09, 0x09, 0xef, 0x1d, 0x1d, 0xef, 0x0c,
  0xff, 0xf6, 0x11, 0x01, 0x0c, 0xf7, 0xf1, 0x11, 0x11, 0x21, 0x13, 0xef,
  0xf9, 0xb8, 0x1d, 0xf9, 0x08, 0xf6, 0x0c, 0x11, 0xd4, 0xe0, 0x02, 0x1a,
  0x09, 0x11, 0xf7, 0xff, 0xee, 0x1a, 0xe3, 0xf4, 0x0c, 0xe3, 0x09, 0xdf,
  0xf9, 0xef, 0x38, 0xf8, 0xd4, 0xed, 0x11, 0xf1, 0x1d, 0xf7, 0xef, 0x11,
  0x09, 0xef, 0xe6, 0x11, 0xc7, 0xf8, 0x1d, 0xe3, 0xef, 0x08, 0xf4, 0x07,
  0x02, 0x0a, 0xf6, 0xe5, 0x16, 0x1a, 0xd6, 0xfe, 0x0c, 0xdf, 0xf7, 0xf8,
  0x12, 0x20, 0x0c, 0xef, 0xf7, 0xfa, 0xf7, 0x11, 0x09, 0xf9, 0xf4, 0x1d,
  0x09, 0xf4, 0x11, 0x18, 0xc7, 0xe3, 0xe3, 0x11, 0xf4, 0xf9, 0x01, 0xf4,
  0xfd, 0xe3, 0x0a, 0xef, 0xf4, 0xdf, 0xf9, 0x29, 0xe6, 0x09, 0x2c, 0xf7,
  0xef, 0xed, 0x21, 0x0a, 0x11, 0x11, 0x09, 0x0a, 0xff, 0x04, 0xef, 0xf7,
  0xe6, 0x11, 0xc0, 0x09, 0xef, 0x1d, 0xfd, 0x09, 0xef, 0x09, 0x07, 0xe6,
  0xef, 0x1d, 0xf4, 0xf9, 0xe6, 0x0c, 0xd6, 0xf7, 0xf6, 0xd4, 0x21, 0x0c,
  0x13, 0xf7, 0xf9, 0x1d, 0x01, 0x09, 0xf4, 0xda, 0xf7, 0x09, 0xf4, 0x18,
  0x09, 0xf4, 0xe3, 0xef, 0x09, 0x07, 0xe6, 0xf9, 0x08, 0xef, 0xe0, 0xf7,
  0x11, 0x18, 0x0c, 0xfa, 0xed, 0xf7, 0x11, 0x0c, 0x09, 0x11, 0x2a, 0xfd,
  0xe3, 0x11, 0x09, 0x2c, 0xf6, 0xdf, 0x1d, 0x1a, 0xf7, 0x21, 0xe6, 0xe6,
  0xe3, 0x13, 0xf9, 0xf4, 0xe6, 0x09, 0xff, 0x1a, 0x11, 0xff, 0x0a, 0x0c,
  0x11, 0xfe, 0x04, 0xf7, 0xec, 0x1a, 0x09, 0xf4, 0xf9, 0xf4, 0x11, 0x1a,
  0xf7, 0x1d, 0x0a, 0xe8, 0x0c, 0xe3, 0xea, 0x07, 0xf7, 0x15, 0x07, 0xfe,
  0x09, 0xf4, 0x09, 0xf4, 0xf6, 0xf4, 0xef, 0x1d, 0x11, 0x09, 0xe6, 0xe6,
  0x0c, 0xe0, 0x09, 0xe8, 0xf7, 0x1a, 0x09, 0xeb, 0xde, 0xef, 0xf7, 0x0a,
  0x0c, 0xef, 0x18, 0x09, 0xf6, 0x1d, 0xf7, 0x1a, 0x2c, 0xf2, 0xf7, 0x0c,
  0xf7, 0x08, 0x07, 0xc7, 0xf1, 0xf6, 0x0c, 0x09, 0x07, 0xe6, 0xda, 0xf9,
  0xf4, 0x0c, 0x0a, 0xf4, 0x0a, 0x07, 0xf7, 0xf7, 0x11, 0xf9, 0xf9, 0xef,
  0x1a, 0xef, 0x1c, 0xd6, 0x07, 0xfb, 0xf9, 0xc9, 0x15, 0xc9, 0xff, 0xf4,
  0x00, 0x67, 0xf0, 0xeb, 0xf0, 0xed, 0xf6, 0x12, 0x00, 0x81, 0x09, 0xf9,
  0xf3, 0xd7, 0x23, 0xcf, 0xf8, 0xfe, 0xd5, 0x30, 0x17, 0x01, 0xd7, 0xd5,
  0xd4, 0x0d, 0xf8, 0xfc, 0x76, 0x1d, 0xd6, 0xf3, 0x43, 0xce, 0x0f, 0xaa,
  0xf3, 0x27, 0x16, 0xe2, 0xfe, 0x09, 0x08, 0x51, 0xed, 0xe0, 0x36, 0x0a,
  0x00, 0xea, 0x02, 0xde, 0x1a, 0x04, 0xff, 0x08, 0x01, 0x16, 0xfd, 0x0c,
  0xe4, 0x0b, 0xe0, 0xc0, 0xf6, 0x16, 0x03, 0xef, 0xee, 0x07, 0x30, 0x09,
  0xec, 0x38, 0x1e, 0x28, 0xe0, 0xbe, 0xd7, 0x0d, 0xe4, 0xd9, 0x16, 0x58,
  0x14, 0xfa, 0xfd, 0xe8, 0x1a, 0xe8, 0x00, 0x2a, 0x03, 0x01, 0xfb, 0xeb,
  0xf2, 0x15, 0xf3, 0xd6, 0x30, 0x13, 0x01, 0xd7, 0x11, 0xfe, 0x33, 0xac,
  0xf0, 0x04, 0x04, 0xa7, 0xf3, 0x25, 0x20, 0xe5, 0xfc, 0x1a, 0xf5, 0x3b,
  0xff, 0xa8, 0x2f, 0x21, 0x46, 0x94, 0xf6, 0x05, 0x19, 0xac, 0xbc, 0x2c,
  0x1a, 0xf2, 0xd7, 0xe3, 0x05, 0x77, 0x1e, 0xe7, 0x1d, 0xea, 0x20, 0xa3,
  0xee, 0xe8, 0x11, 0xda, 0xf4, 0x53, 0x5c, 0x00, 0xec, 0xef, 0x09, 0x11,
  0xf9, 0xf1, 0xf9, 0xf1, 0xef, 0xee, 0xe6, 0xe6, 0xf4, 0xfd, 0x12, 0xf4,
  0xf4, 0xec, 0x0a, 0xf9, 0x01, 0xec, 0xef, 0x1a, 0xf7, 0x09, 0xef, 0xf7,
  0xf4, 0xef, 0xf7, 0x15, 0x00, 0xe8, 0x0c, 0xe8, 0x16, 0x07, 0x1d, 0x09,
  0xef, 0xf6, 0x09, 0xe8, 0xf2, 0x0c, 0xf7, 0xf1, 0x0a, 0xf4, 0xe5, 0x1a,
  0x0d, 0x13, 0xf9, 0x09, 0xf4, 0x18, 0xf6, 0xf4, 0x07, 0x11, 0x14, 0xdf,
  0xef, 0x12, 0x03, 0x0a, 0xd6, 0x02, 0xe3, 0xfc, 0xf9, 0x0c, 0x1a, 0xef,
  0xfa, 0xea, 0xf8, 0xef, 0xc7, 0xf9, 0x08, 0xe6, 0x21, 0x1a, 0xf9, 0x09,
  0x1a, 0xec, 0x11, 0xf9, 0xfd, 0x0a, 0xf6, 0x11, 0xe6, 0xe6, 0xfa, 0x22,
  0xfd, 0x0c, 0x09, 0xf7, 0x13, 0x01, 0x11, 0xfe, 0xe6, 0x08, 0xf2, 0x21,
  0x1a, 0x11, 0x0f, 0xf9, 0x18, 0x0e, 0x09, 0x26, 0xf4, 0x1d, 0xff, 0x09,
  0xf9, 0xed, 0x11, 0xe6, 0xeb, 0xef, 0xe8, 0xdf, 0xf7, 0xf9, 0xfe, 0xf9,
  0xf7, 0x09, 0x07, 0x13, 0x16, 0xf7, 0x1a, 0xe0, 0x1d, 0x0c, 0xf9, 0x04,
  0xfe, 0xf8, 0xf6, 0xef, 0x01, 0xe6, 0x0d, 0x26, 0x0e, 0x14, 0xe6, 0x09,
  0xf6, 0xf7, 0xf7, 0x09, 0x1a, 0x09, 0xf2, 0xe3, 0x11, 0x11, 0x0a, 0xf7,
  0xe8, 0xda, 0x1a, 0x1a, 0x09, 0xf7, 0x0f, 0x09, 0x20, 0x09, 0x09, 0x01,
  0x04, 0xfb, 0xfc, 0x22, 0x07, 0x1a, 0xe0, 0xfd, 0xf4, 0x03, 0x11, 0x09,
  0xf9, 0xe6, 0x11, 0x02, 0x1a, 0xe3, 0xf7, 0xdf, 0x06, 0x0f, 0xf9, 0x01,
  0xf4, 0x07, 0x11, 0xf4, 0xf4, 0xe6, 0x1d, 0x0d, 0xf9, 0x1a, 0xf4, 0x09,
  0x1a, 0x04, 0x11, 0xf4, 0xe3, 0x1a, 0x01, 0x09, 0xef, 0x11, 0xfc, 0x08,
  0x02, 0xf4, 0x11, 0x09, 0x07, 0x0e, 0x11, 0x11, 0x1d, 0xef, 0xef, 0x11,
  0x0a, 0xf4, 0xea, 0xef, 0xf6, 0xf6, 0xf8, 0xe6, 0x0b, 0x04, 0x18, 0xfa,
  0x09, 0x1d, 0xdf, 0x1a, 0x0c, 0x09, 0xfd, 0xf3, 0xef, 0x04, 0xef, 0xea,
  0x01, 0x11, 0x13, 0xe3, 0xf9, 0xde, 0x21, 0xe8, 0x1d, 0xf7, 0xfe, 0xff,
  0xf9, 0xf4, 0x0a, 0x0e, 0xef, 0x0a, 0xe6, 0x01, 0xd6, 0x20, 0x09, 0xe6,
  0xfe, 0xf1, 0xdf, 0xee, 0xf4, 0x20, 0xfc, 0x09, 0xf4, 0xf8, 0x11, 0xe8,
  0x11, 0x09, 0xf2, 0x07, 0xe3, 0xed, 0xf6, 0x09, 0x0c, 0xfb, 0x07, 0xf9,
  0x01, 0x06, 0x11, 0xe5, 0xe0, 0xee, 0xd6, 0x03, 0x15, 0x09, 0xfd, 0x09,
  0x09, 0x11, 0x01, 0x1b, 0xef, 0x11, 0xef, 0x21, 0xef, 0xe3, 0x09, 0xef,
  0xee, 0x11, 0x0a, 0xef, 0xfe, 0xe3, 0xe6, 0xf9, 0xdf, 0x07, 0x18, 0x16,
  0xfa, 0xf4, 0x03, 0xf4, 0xee, 0x11, 0x11, 0xe3, 0xef, 0xed, 0x07, 0x1a,
  0x10, 0xf4, 0xef, 0x0f, 0xf9, 0xee, 0x0c, 0xe3, 0xef, 0x11, 0x0e, 0x0c,
  0x11, 0x18, 0x20, 0xff, 0x11, 0x11, 0x26, 0x11, 0xf3, 0x01, 0x0a, 0x03,
  0x01, 0x09, 0x03, 0x2c, 0x09, 0x21, 0x22, 0x1a, 0x11, 0x11, 0xef, 0x09,
  0x0c, 0x1d, 0xe6, 0xf3, 0xf7, 0x09, 0xfe, 0xf6, 0xef, 0x1b, 0x0c, 0x10,
  0x01, 0xf7, 0xf6, 0x13, 0xe3, 0x11, 0x1d, 0x21, 0xeb, 0xf7, 0x08, 0x11,
  0x11, 0x21, 0x11, 0xf9, 0xe6, 0x05, 0x09, 0xf4, 0x06, 0xe8, 0xfd, 0x11,
  0xf9, 0xf8, 0x09, 0xef, 0xef, 0x2c, 0x0c, 0xf7, 0xf7, 0xe6, 0x09, 0x21,
  0x39, 0x1a, 0x11, 0xf4, 0x04, 0x1d, 0x02, 0x04, 0x09, 0x09, 0x06, 0xef,
  0xf7, 0xef, 0x1b, 0x07, 0x1a, 0xf7, 0xed, 0xf1, 0xef, 0xf6, 0x01, 0xf7,
  0xf4, 0xf6, 0x13, 0x2a, 0xef, 0xf2, 0xf6, 0x11, 0xf4, 0x06, 0x1d, 0x11,
  0xef, 0xda, 0xf7, 0x03, 0x09, 0xe0, 0x11, 0x09, 0x16, 0xf3, 0xef, 0x11,
  0x13, 0x11, 0x09, 0xf4, 0x11, 0xe3, 0x00, 0xe6, 0xef, 0x0a, 0x15, 0x0b,
  0x09, 0x18, 0x0c, 0xf4, 0x0f, 0xfa, 0x0a, 0x01, 0xef, 0x0c, 0x1d, 0xe3,
  0x11, 0xf7, 0x0a, 0x18, 0x20, 0xf9, 0x07, 0xee, 0x01, 0x0a, 0xf8, 0x11,
  0xf4, 0xef, 0x06, 0x0a, 0x09, 0xf2, 0x09, 0xf4, 0xf7, 0xef, 0xef, 0xef,
  0xef, 0xf9, 0x05, 0x40, 0x11, 0x1a, 0xef, 0xf7, 0x11, 0x0f, 0x1d, 0x13,
  0x09, 0xe5, 0x09, 0xfa, 0x1a, 0xf7, 0xf4, 0xef, 0xe6, 0xfa, 0x01, 0xff,
  0xe3, 0xfb, 0x07, 0xf7, 0xf9, 0xf7, 0x0c, 0xf7, 0xf9, 0x02, 0x20, 0x0c,
  0x11, 0xff, 0xef, 0x09, 0xe6, 0x2a, 0x07, 0xf6, 0xf6, 0x06, 0x38, 0xde,
  0xf7, 0xf9, 0xf7, 0x07, 0x1a, 0xf8, 0x11, 0xf1, 0xef, 0x07, 0x1a, 0xf4,
  0xf7, 0x1d, 0x1d, 0x09, 0xef, 0x20, 0xfc, 0xf7, 0xf7, 0xea, 0xf8, 0xef,
  0xf4, 0x2c, 0xf7, 0x04, 0x09, 0x0b, 0xf7, 0x11, 0xe3, 0x0c, 0xdf, 0xf7,
  0x07, 0xe6, 0xf6, 0x1d, 0xf7, 0xef, 0x1b, 0x0a, 0x11, 0x09, 0xf7, 0xf7,
  0x06, 0x11, 0x03, 0x00, 0x03, 0x11, 0xfe, 0x0e, 0xf7, 0xe6, 0xe3, 0xf7,
  0xef, 0x0c, 0xef, 0xef, 0xe6, 0x09, 0x07, 0x21, 0xf7, 0xf7, 0xe8, 0xe6,
  0x07, 0x11, 0xff, 0xef, 0xef, 0x13, 0x0a, 0x0e, 0xf7, 0x21, 0x11, 0x12,
  0xe3, 0x0c, 0xf9, 0x1d, 0xf7, 0xf9, 0xe6, 0x11, 0x07, 0x0e, 0xe3, 0x11,
  0xea, 0x18, 0x20, 0xed, 0xf1, 0xef, 0x04, 0xef, 0x0c, 0xe9, 0x11, 0xf6,
  0x09, 0xf7, 0xef, 0x02, 0x07, 0xdf, 0x08, 0xf1, 0x11, 0xe3, 0xef, 0xf7,
  0xfd, 0x16, 0x09, 0x18, 0xd4, 0xe3, 0xf6, 0x20, 0xfd, 0xf3, 0xf6, 0x22,
  0x0c, 0xf4, 0xe3, 0xf7, 0xef, 0x0d, 0x22, 0x21, 0xf4, 0x11, 0xef, 0x40,
  0xfd, 0x1d, 0xf7, 0xed, 0x0a, 0xf6, 0x07, 0xe3, 0xe3, 0xf1, 0xdf, 0xea,
  0x26, 0x09, 0xf4, 0x0f, 0xe6, 0xf4, 0x1b, 0x0a, 0x11, 0x05, 0x0c, 0xf9,
  0xf4, 0x1a, 0xf9, 0xee, 0x0c, 0xf7, 0x0c, 0x11, 0x09, 0xfe, 0x09, 0x21,
  0xf7, 0x1d, 0x09, 0x06, 0x04, 0x09, 0xe3, 0xf7, 0x0f, 0x1b, 0xeb, 0x15,
  0xef, 0x0c, 0xff, 0xd4, 0x16, 0xf8, 0x17, 0x11, 0x09, 0x09, 0xf1, 0x15,
  0xff, 0x2a, 0xea, 0xe8, 0xf4, 0x02, 0xf7, 0x11, 0x0a, 0xef, 0xdf, 0x0c,
  0xf4, 0xc7, 0x11, 0x1d, 0xfa, 0xf7, 0x12, 0x01, 0xef, 0x08, 0xf7, 0xe5,
  0xf4, 0xf7, 0xe8, 0xe6, 0x21, 0xf7, 0x09, 0x11, 0x0c, 0x0f, 0x0c, 0x07,
  0xf4, 0x09, 0x1d, 0x12, 0xf7, 0x10, 0xe0, 0xf7, 0x07, 0xf7, 0xf4, 0xef,
  0xf6, 0x09, 0xf9, 0x09, 0xe6, 0xf6, 0x38, 0x21, 0xe3, 0xef, 0xef, 0xef,
  0x0c, 0x07, 0x07, 0xdf, 0x1d, 0xe3, 0x1a, 0x0a, 0x11, 0xf9, 0x1d, 0xf6,
  0xef, 0xef, 0x1d, 0xf7, 0xef, 0xf6, 0x11, 0x1d, 0x1d, 0x0a, 0x1a, 0xe5,
  0xf4, 0xe6, 0xf4, 0x0a, 0xe6, 0x1d, 0xf7, 0xe6, 0x11, 0x11, 0x08, 0x1a,
  0xef, 0x11, 0x11, 0xd6, 0xef, 0x07, 0xf4, 0x1d, 0x07, 0xfa, 0xe5, 0xf6,
  0x0c, 0xee, 0x1a, 0x16, 0xef, 0xf4, 0x0c, 0x1d, 0x1d, 0xe3, 0x11, 0xf4,
  0x1d, 0xe6, 0xf7, 0xef, 0xd4, 0x11, 0xf4, 0x1d, 0xf4, 0xf4, 0xf7, 0x0c,
  0xe3, 0xf4, 0xf7, 0x1d, 0xdf, 0x0c, 0xef, 0x08, 0x11, 0xe6, 0xef, 0x0a,
  0x0c, 0xe3, 0xe6, 0xfc, 0xf9, 0x18, 0xf4, 0x11, 0x1b, 0x08, 0xe3, 0xf4,
  0x11, 0x11, 0xe6, 0xf8, 0x21, 0x09, 0x0a, 0xef, 0xd4, 0xef, 0xef, 0xfd,
  0xf7, 0xe3, 0xe3, 0x0b, 0xf7, 0xef, 0x11, 0xf7, 0x07, 0x01, 0x0c, 0x07,
  0xf4, 0xef, 0x02, 0xf6, 0x21, 0x07, 0xe6, 0x0a, 0x07, 0xf7, 0x00, 0xef,
  0x02, 0xf6, 0x09, 0xef, 0x1d, 0x1d, 0x0c, 0xef, 0x11, 0xef, 0xe6, 0x08,
  0x01, 0x07, 0xe3, 0xe3, 0x11, 0xfc, 0x07, 0xfd, 0x09, 0xf4, 0x1d, 0x07,
  0xf7, 0x07, 0xf9, 0x11, 0x21, 0xfc, 0x04, 0x21, 0x09, 0x11, 0x04, 0xfe,
  0x09, 0x0c, 0xf6, 0x21, 0xef, 0x03, 0x1d, 0xf7, 0x1d, 0x0c, 0xe6, 0x06,
  0xf4, 0x0c, 0xf4, 0x0c, 0xef, 0x07, 0xf6, 0xfd, 0xf7, 0x0a, 0x11, 0xef,
  0x1d, 0x07, 0x0a, 0x16, 0x09, 0xef, 0xf7, 0xf4, 0x03, 0xf9, 0xef, 0x00,
  0x39, 0x11, 0xf7, 0x04, 0x01, 0xf7, 0xf6, 0xfd, 0xf6, 0xda, 0xf9, 0xf7,
  0xf4, 0x1d, 0xf7, 0xf4, 0xef, 0xea, 0x0c, 0x08, 0xe6, 0x11, 0xf2, 0xe3,
  0xef, 0xe3, 0xf8, 0xf6, 0x11, 0xef, 0xf9, 0x0c, 0xf9, 0xe3, 0x03, 0xdf,
  0xe3, 0x0a, 0x1a, 0xef, 0xef, 0x0c, 0xef, 0xf6, 0xf4, 0xef, 0xf4, 0xfc,
  0x11, 0xe6, 0xf7, 0xf7, 0xe6, 0xf6, 0xef, 0xf4, 0x1d, 0x09, 0x09, 0x0c,
  0xef, 0xf4, 0x08, 0x0c, 0xef, 0x11, 0xef, 0xf1, 0x0a, 0xe6, 0x18, 0x11,
  0xf6, 0x07, 0x11, 0x1d, 0xef, 0xf6, 0x11, 0xf6, 0xef, 0xff, 0x07, 0xf8,
  0x0c, 0x1a, 0x0c, 0x01, 0xe3, 0x11, 0xef, 0x1a, 0x0c, 0xf9, 0x0c, 0x38,
  0x07, 0xf7, 0x39, 0x1d, 0x0c, 0x0c, 0x11, 0x09, 0xe6, 0xf7, 0x11, 0x1b,
  0xf9, 0x09, 0x0a, 0x0c, 0x1d, 0xef, 0x11, 0x1d, 0x09, 0x40, 0x11, 0x21,
  0x2a, 0x0e, 0xed, 0x0a, 0xef, 0xe6, 0x0e, 0xf9, 0x0c, 0x1d, 0x18, 0xf9,
  0xf7, 0x0a, 0x07, 0xff, 0xf6, 0xf7, 0x1a, 0x0c, 0xf9, 0xf7, 0x09, 0xf9,
  0xef, 0x0c, 0x11, 0x40, 0xef, 0x11, 0x11, 0x07, 0x1d, 0x11, 0x2a, 0x0c,
  0xf4, 0xf6, 0x09, 0x09, 0x1a, 0xef, 0x39, 0x1a, 0x43, 0x29, 0xdd, 0xe3,
  0x01, 0x76, 0x07, 0x03, 0x09, 0xfb, 0xe2, 0x05, 0x30, 0x1d, 0xff, 0xf3,
  0xec, 0xf1, 0x01, 0xd1, 0x04, 0x03, 0x03, 0xe0, 0x1f, 0xa1, 0x06, 0xe0,
  0xe6, 0x11, 0x14, 0x1c, 0x02, 0xf0, 0x01, 0xf1, 0x33, 0xc5, 0x10, 0x1d,
  0x1c, 0xbe, 0x4f, 0xff, 0xef, 0xa1, 0x00, 0xf0, 0xfe, 0x04, 0xe8, 0x05,
  0x27, 0xf0, 0x06, 0x11, 0x2e, 0x02, 0x04, 0x37, 0xe0, 0x05, 0x14, 0xff,
  0xeb, 0x16, 0x05, 0xe8, 0xe4, 0xf3, 0xf7, 0xf7, 0x07, 0xc3, 0xf8, 0x09,
  0x01, 0x1e, 0x04, 0xd6, 0x1c, 0x0f, 0xf0, 0x0e, 0xf5, 0x01, 0xea, 0x05,
  0x00, 0xed, 0x12, 0xd4, 0xf3, 0x09, 0xf9, 0x07, 0x15, 0x08, 0xe8, 0xfc,
  0xf2, 0xd6, 0x01, 0x03, 0xfb, 0x17, 0x33, 0xf1, 0xef, 0x2d, 0x7f, 0xfc,
  0x28, 0x0d, 0xd8, 0xf4, 0xfd, 0xcc, 0x00, 0xfa, 0xf1, 0xfd, 0x16, 0xd0,
  0xe1, 0x50, 0xfb, 0xeb, 0xff, 0xf9, 0x08, 0x59, 0xf1, 0xe8, 0x4e, 0xfe,
  0x04, 0x02, 0xf0, 0xdf, 0xf3, 0x55, 0xe1, 0x12, 0x06, 0x01, 0xea, 0xfa,
  0xf4, 0x28, 0x0d, 0xde, 0xfb, 0xf1, 0xfd, 0xfd, 0xfc, 0xca, 0xef, 0x5d,
  0x09, 0x35, 0xef, 0xfc, 0xef, 0xe6, 0xfc, 0x21, 0xef, 0xe6, 0x1a, 0xf9,
  0xe6, 0xea, 0xf9, 0xf9, 0xe0, 0x07, 0xf7, 0x09, 0xe3, 0x21, 0x11, 0xdf,
  0x20, 0xef, 0x0c, 0xe6, 0xf4, 0xfa, 0xe3, 0x02, 0xe6, 0xf7, 0x09, 0x06,
  0xf7, 0x11, 0x1d, 0x07, 0x1d, 0xef, 0x1d, 0xe8, 0xf7, 0x0a, 0xf1, 0xd4,
  0xf9, 0xe6, 0x11, 0x11, 0xe6, 0xf7, 0x1a, 0xf1, 0x09, 0x11, 0xed, 0x1d,
  0x04, 0xe9, 0xf8, 0xf4, 0x11, 0xf8, 0x07, 0xff, 0x11, 0xef, 0x0c, 0x40,
  0x0c, 0xc0, 0x10, 0x09, 0x07, 0xe3, 0xef, 0xe6, 0x07, 0x09, 0xfc, 0xf7,
  0x1a, 0xe3, 0xf4, 0xf9, 0xef, 0xf4, 0x09, 0xfe, 0xc7, 0xf7, 0x21, 0x0c,
  0x07, 0x0e, 0x15, 0x13, 0x09, 0xc7, 0x0e, 0xfe, 0xef, 0xff, 0x11, 0x1d,
  0x07, 0xf6, 0x11, 0xef, 0xef, 0xef, 0xfd, 0x0c, 0x0a, 0xef, 0x13, 0x0c,
  0x09, 0xf4, 0xfa, 0xef, 0xf7, 0x0c, 0x07, 0xf6, 0xef, 0x22, 0xef, 0xe3,
  0xfa, 0xff, 0xf7, 0xef, 0x11, 0xef, 0x09, 0x21, 0x08, 0x09, 0xe3, 0xf4,
  0x0a, 0xdf, 0xd6, 0x09, 0xf9, 0x0a, 0x1d, 0x0c, 0xe8, 0xef, 0x04, 0x0f,
  0xed, 0x07, 0x0f, 0xf7, 0xf6, 0x03, 0x13, 0x0a, 0x26, 0xef, 0x11, 0xec,
  0xf2, 0xe3, 0x1d, 0x21, 0x0a, 0xf4, 0xf7, 0x13, 0x39, 0x22, 0xc7, 0xf4,
  0x1a, 0xfe, 0xef, 0x03, 0xef, 0x21, 0x01, 0x03, 0x11, 0x0a, 0xf9, 0x13,
  0xc7, 0xf9, 0x11, 0xe6, 0xfc, 0x2a, 0xf7, 0xfd, 0xf6, 0xe5, 0x2a, 0x08,
  0x11, 0xf4, 0x39, 0x06, 0xf9, 0xfe, 0x0f, 0x12, 0x1a, 0x18, 0xfd, 0x1a,
  0xf7, 0xe6, 0xf6, 0xe8, 0x09, 0x0a, 0xfd, 0x1a, 0x11, 0xf4, 0xfa, 0x04,
  0x01, 0xe3, 0xff, 0x0c, 0xfe, 0x2c, 0xf8, 0x11, 0x09, 0x07, 0x09, 0xf8,
  0xfd, 0xf8, 0xe6, 0xfa, 0xf0, 0xd6, 0x1d, 0x11, 0x0c, 0xe3, 0x07, 0xfa,
  0xf6, 0x16, 0x13, 0xf6, 0x0a, 0x0a, 0xfd, 0x0c, 0xfe, 0xfe, 0xfa, 0xf9,
  0x0c, 0x21, 0xc0, 0xef, 0xf9, 0x09, 0xf9, 0xf9, 0xf2, 0xef, 0xea, 0x05,
  0xfd, 0xf3, 0x2a, 0xef, 0xff, 0xe6, 0xd4, 0x02, 0xe3, 0x11, 0x21, 0xf4,
  0xf6, 0x0a, 0x04, 0xff, 0xee, 0xf6, 0xfe, 0xfb, 0xe0, 0x1a, 0x14, 0x34,
  0x2a, 0x05, 0xe8, 0x81, 0x17, 0x0a, 0xe7, 0x1a, 0x09, 0xf2, 0xf9, 0xe5,
  0xfd, 0x01, 0xf2, 0x19, 0x10, 0x36, 0x09, 0x02, 0xe8, 0xaf, 0xfd, 0x2e,
  0xff, 0x0f, 0x07, 0xf0, 0xe4, 0xf6, 0xec, 0x0a, 0xd8, 0x1a, 0x03, 0x01,
  0x1a, 0x16, 0x01, 0xe7, 0xfa, 0x15, 0x00, 0xf1, 0xd4, 0xf1, 0xe7, 0x0a,
  0xf1, 0x03, 0xf1, 0xfe, 0xfe, 0x01, 0x1a, 0x08, 0xec, 0xc9, 0x0f, 0xec,
  0xf4, 0x11, 0xea, 0xbb, 0x00, 0xfd, 0xff, 0xfb, 0xff, 0xee, 0xf6, 0xfd,
  0x1a, 0x00, 0x0c, 0xed, 0x01, 0xfe, 0xfa, 0x08, 0xf7, 0xcf, 0xfe, 0x04,
  0xea, 0xff, 0xf1, 0xf5, 0xf7, 0xd5, 0x13, 0x12, 0x11, 0x08, 0x01, 0xfb,
  0x00, 0xfa, 0xf3, 0x39, 0xf2, 0x3b, 0xcd, 0x51, 0xf6, 0x48, 0xf5, 0xbb,
  0x05, 0x25, 0xfe, 0xe2, 0x05, 0x00, 0x2c, 0x18, 0xea, 0x2e, 0x06, 0x18,
  0xf0, 0x22, 0x00, 0x00, 0xfe, 0xbd, 0x08, 0x00, 0x0b, 0x02, 0x00, 0xfd,
  0x12, 0x16, 0xe6, 0x32, 0xea, 0x27, 0xdc, 0x29, 0x04, 0x17, 0xfc, 0x9a,
  0xf8, 0x14, 0x04, 0x10, 0x02, 0x15, 0x1c, 0x0b, 0x05, 0xf1, 0xf8, 0x03,
  0x1a, 0xd8, 0x2b, 0x00, 0xff, 0xd1, 0x09, 0x03, 0x02, 0xfa, 0x07, 0x01,
  0x17, 0xc1, 0xfc, 0xfd, 0x0a, 0xe9, 0xe0, 0xcf, 0x21, 0xe4, 0x1e, 0xe7,
  0x14, 0x06, 0xe7, 0xfd, 0x0e, 0xf6, 0xe4, 0xe6, 0x11, 0x3d, 0xff, 0xcf,
  0xef, 0x29, 0x0c, 0x2c, 0x44, 0x01, 0x1d, 0xeb, 0xf0, 0x13, 0x05, 0xfa,
  0xf2, 0xf8, 0x16, 0xc0, 0xd6, 0xfc, 0x09, 0xfc, 0x05, 0xfe, 0x00, 0xfa,
  0xf9, 0xfa, 0x02, 0x03, 0xfe, 0x0b, 0x2e, 0xdc, 0x01, 0xb4, 0x02, 0xfd,
  0xf0, 0xf9, 0xfe, 0xd2, 0x0b, 0xf3, 0x0e, 0xff, 0xf4, 0x03, 0xfb, 0x01,
  0xf7, 0xd9, 0x10, 0x46, 0xf3, 0xfe, 0x1c, 0x08, 0x00, 0x0b, 0x08, 0x03,
  0x07, 0x33, 0x03, 0x16, 0xfa, 0xe8, 0xfb, 0xf1, 0x26, 0xe0, 0xfa, 0xe6,
  0x01, 0x39, 0x21, 0xf6, 0xfc, 0xf3, 0x18, 0x0b, 0x01, 0xf7, 0x19, 0x44,
  0x3b, 0x20, 0xfa, 0xe6, 0xea, 0xf8, 0xf7, 0x19, 0xeb, 0xeb, 0x08, 0xf5,
  0x1b, 0x31, 0xfb, 0xcb, 0xf5, 0x1f, 0xfd, 0x0e, 0x0b, 0x3e, 0xe6, 0x05,
  0x2e, 0xd7, 0xed, 0x00, 0xfe, 0x11, 0x0f, 0x7f, 0xfb, 0xed, 0xfe, 0xd3,
  0x14, 0x19, 0x00, 0x05, 0xe1, 0xfd, 0x1e, 0x08, 0xfe, 0x74, 0x22, 0x0b,
  0x03, 0xed, 0x03, 0xf8, 0x02, 0x09, 0x08, 0xee, 0xfa, 0x25, 0x06, 0x0e,
  0x1d, 0x03, 0x1a, 0x31, 0x03, 0xf1, 0x39, 0x07, 0x00, 0xe3, 0x36, 0xd1,
  0xed, 0xff, 0xe8, 0x08, 0x01, 0x14, 0x4f, 0xf8, 0x2a, 0x47, 0x12, 0xf5,
  0x58, 0x06, 0xfc, 0xf8, 0xfa, 0xf3, 0xf2, 0xde, 0x00, 0x12, 0x24, 0xf0,
  0xff, 0x19, 0x09, 0x1c, 0x30, 0x03, 0x0d, 0xfe, 0xfc, 0xf7, 0x00, 0x26,
  0xf0, 0x0d, 0xd6, 0xfc, 0x42, 0x08, 0x02, 0x00, 0x0f, 0xf9, 0x00, 0xe1,
  0x17, 0x05, 0xfd, 0xd2, 0x62, 0xf9, 0xea, 0x28, 0xf7, 0xcb, 0x10, 0x03,
  0x4a, 0xf6, 0x08, 0x0a, 0x02, 0xfd, 0x2c, 0x15, 0x00, 0xee, 0x01, 0x31,
  0xfe, 0x04, 0x24, 0x12, 0x67, 0xe8, 0x09, 0x15, 0x15, 0xc8, 0x3b, 0xed,
  0x17, 0xfe, 0xfd, 0x0b, 0xfe, 0xd1, 0x01, 0x1c, 0xfe, 0x81, 0x27, 0xfb,
  0xfe, 0x01, 0x1e, 0xb7, 0x49, 0xae, 0x08, 0x04, 0xfd, 0x02, 0x55, 0xd2,
  0x0b, 0x22, 0x0f, 0x92, 0x03, 0xe1, 0x17, 0x02, 0x0a, 0x94, 0x1e, 0xd3,
  0x02, 0x31, 0x03, 0x16, 0xf3, 0x05, 0x17, 0x06, 0xf7, 0xf1, 0xec, 0x07,
  0x1a, 0x11, 0xf8, 0xfe, 0xe6, 0x0e, 0xf9, 0x2a, 0x0c, 0xdf, 0x1d, 0xe6,
  0x1d, 0xfc, 0xf9, 0xf4, 0x03, 0xff, 0xf7, 0xe0, 0x13, 0xfc, 0xff, 0xfd,
  0x01, 0xfa, 0x0a, 0x08, 0x0a, 0xf4, 0x21, 0x11, 0xf1, 0xef, 0x1d, 0xf2,
  0xd4, 0xfc, 0x07, 0x0c, 0xf7, 0x11, 0xf6, 0xf8, 0xdf, 0x11, 0xf9, 0x1a,
  0xf2, 0xdf, 0xf8, 0xe3, 0x0c, 0xf8, 0x04, 0xf4, 0x18, 0x09, 0xf6, 0xe6,
  0x09, 0xe5, 0x39, 0xf9, 0xe8, 0x1d, 0xf1, 0x11, 0xf4, 0x0f, 0xb8, 0xe3,
  0x07, 0xf4, 0x1d, 0x11, 0xf9, 0xee, 0xf7, 0xef, 0x11, 0x04, 0xf7, 0xf7,
  0xf7, 0x01, 0x09, 0x0a, 0x11, 0x13, 0x11, 0x0a, 0x09, 0x11, 0x0c, 0x0c,
  0xf4, 0xde, 0x04, 0xfe, 0x09, 0x0c, 0x21, 0xf7, 0xf7, 0x07, 0x07, 0xef,
  0xe0, 0xef, 0x04, 0x15, 0x0f, 0xef, 0xf6, 0xef, 0xf1, 0xe6, 0xf7, 0xe6,
  0xf6, 0x20, 0xf6, 0xf6, 0xe3, 0xef, 0x1d, 0x07, 0xe6, 0x11, 0xf9, 0x07,
  0xf7, 0xe3, 0xe3, 0x09, 0xf9, 0xef, 0xf7, 0x11, 0x1d, 0x1a, 0xef, 0xef,
  0xe3, 0xf7, 0xf4, 0xe8, 0x1a, 0x11, 0x11, 0x1d, 0xf7, 0xe3, 0x0c, 0xf4,
  0x11, 0x0c, 0xf4, 0x11, 0x2c, 0x1a, 0x11, 0x26, 0xf6, 0x1a, 0xef, 0x21,
  0x11, 0x1d, 0xe3, 0xe3, 0xf4, 0xf9, 0x09, 0xef, 0x0c, 0xf7, 0xef, 0x09,
  0xf4, 0xef, 0x11, 0xf4, 0xf2, 0x40, 0xf6, 0x11, 0x11, 0x09, 0x0c, 0xe6,
  0xf6, 0x0a, 0x0c, 0xf4, 0x1d, 0x09, 0x09, 0xf6, 0x0e, 0xe8, 0xe6, 0x09,
  0x0a, 0xf6, 0x09, 0x07, 0xef, 0x11, 0xf6, 0x11, 0xe3, 0xf7, 0xf7, 0xf4,
  0xf7, 0x0a, 0xf4, 0xd4, 0x11, 0xf7, 0xe6, 0x09, 0x0a, 0x1a, 0xf4, 0xf6,
  0x0c, 0xe6, 0x1d, 0x1d, 0xef, 0x11, 0xf4, 0xf7, 0x0c, 0x0e, 0x09, 0x08,
  0xec, 0x0a, 0x1d, 0x1d, 0xef, 0xe6, 0x1a, 0x07, 0xe6, 0x0a, 0x0c, 0x0c,
  0x1d, 0x0a, 0x1a, 0x08, 0x17, 0x0c, 0xf7, 0xe6, 0x07, 0xe6, 0x07, 0x11,
  0x1a, 0x0a, 0xf4, 0xef, 0xf6, 0xe3, 0x11, 0xd4, 0xf4, 0x07, 0x09, 0xf4,
  0xf7, 0x11, 0x11, 0xf7, 0xf7, 0x1a, 0xf7, 0x11, 0x28, 0x00, 0x22, 0x0f,
  0xd7, 0xfe, 0xf0, 0xc2, 0xdf, 0x04, 0x19, 0x2a, 0xfe, 0xc5, 0xa7, 0x8a,
  0x48, 0x76, 0x1e, 0x73, 0x12, 0xff, 0xfc, 0x10, 0xc7, 0xba, 0xe0, 0x1b,
  0x06, 0x1f, 0x38, 0xe2, 0xda, 0xcd, 0x3a, 0x0c, 0x2f, 0x55, 0xef, 0xee,
  0x1f, 0x05, 0xd2, 0xae, 0xf8, 0x0d, 0x11, 0x2e, 0x5a, 0xe9, 0xd3, 0xe8,
  0x3d, 0x0e, 0xff, 0xe5, 0x03, 0x5d, 0xc9, 0x00, 0xf6, 0xf8, 0xea, 0xde,
  0xc9, 0x08, 0x2c, 0xc0, 0xb6, 0xc9, 0x09, 0x0f, 0xfc, 0xf1, 0x1d, 0xfc,
  0xe5, 0xe8, 0xd7, 0xde, 0xf7, 0x0e, 0xf6, 0x04, 0x5c, 0xcb, 0xca, 0xe9,
  0xf8, 0xcb, 0xf8, 0xfe, 0xfe, 0x0d, 0xd8, 0xf2, 0xf2, 0xdc, 0xea, 0x00,
  0xca, 0xfe, 0x47, 0xcf, 0x00, 0xe3, 0xfa, 0xdd, 0x10, 0xa9, 0xfc, 0xfc,
  0xe4, 0x5e, 0x0c, 0xf5, 0x0e, 0x05, 0xfe, 0x08, 0x67, 0x26, 0xcb, 0xd7,
  0x2a, 0xf0, 0x05, 0x81, 0x1c, 0xfb, 0xec, 0x43, 0x08, 0xae, 0xf3, 0x2b,
  0x0f, 0x06, 0x44, 0x55, 0xb8, 0xef, 0x1c, 0xb0, 0x03, 0xa2, 0x13, 0x24,
  0xf6, 0x54, 0x18, 0xfe, 0xc8, 0xf7, 0xee, 0x0c, 0x23, 0x34, 0x04, 0xff,
  0x28, 0xd1, 0x11, 0x11, 0xe3, 0x1a, 0xf9, 0xef, 0x09, 0xf9, 0xe3, 0xe6,
  0xf7, 0xfe, 0x20, 0x2a, 0x07, 0x09, 0x15, 0x07, 0xf9, 0xef, 0xdf, 0x08,
  0x11, 0xe6, 0xf6, 0xf6, 0x09, 0x0c, 0x03, 0xef, 0xf2, 0xf7, 0xef, 0xe6,
  0x0a, 0x1a, 0x11, 0x0c, 0x11, 0xf1, 0x09, 0xef, 0x0a, 0xfa, 0x0c, 0x11,
  0x07, 0xef, 0xf7, 0x09, 0xf4, 0x11, 0xf9, 0xe3, 0xf4, 0xe3, 0x1d, 0xf7,
  0x1d, 0x0a, 0x1d, 0xe6, 0xe3, 0xf4, 0x0a, 0x01, 0x1a, 0xf7, 0xf4, 0xf4,
  0x1d, 0x11, 0xf4, 0xef, 0xf7, 0xde, 0x07, 0xef, 0x04, 0x11, 0x0c, 0x11,
  0xf1, 0x11, 0x11, 0xeb, 0x11, 0x0c, 0xf4, 0x07, 0xe6, 0x0c, 0x09, 0x04,
  0xf7, 0x1a, 0x03, 0xf9, 0xf4, 0x0a, 0x0c, 0x0e, 0xf7, 0x1d, 0xe6, 0x11,
  0xe3, 0x11, 0xf5, 0x07, 0x11, 0xe3, 0xf4, 0xe6, 0xf4, 0x07, 0x20, 0xf7,
  0x08, 0x15, 0x09, 0x07, 0xf9, 0xf9, 0xf6, 0x09, 0x00, 0x09, 0x11, 0x09,
  0xef, 0xef, 0x09, 0xf9, 0x09, 0xe6, 0xef, 0x03, 0x07, 0xef, 0xef, 0x0c,
  0x11, 0xf4, 0x11, 0x03, 0xf9, 0x0c, 0x1b, 0x0f, 0x21, 0xef, 0x06, 0xf7,
  0xf9, 0x0a, 0x09, 0xdf, 0x09, 0x0a, 0x09, 0x1a, 0x21, 0x18, 0x18, 0xab,
  0xe0, 0x0c, 0xfd, 0xf7, 0xf4, 0xf9, 0xf4, 0x11, 0x1a, 0xf8, 0x1a, 0x09,
  0x0c, 0x03, 0x1a, 0x1d, 0x0c, 0xf7, 0x11, 0xd4, 0x11, 0x21, 0xf9, 0x2c,
  0xf7, 0xf3, 0xde, 0xf7, 0xff, 0xef, 0xf4, 0x11, 0x1a, 0xfb, 0xf7, 0x0a,
  0x02, 0xf4, 0x0c, 0xff, 0x01, 0x09, 0xff, 0xff, 0xf8, 0xf7, 0x11, 0x06,
  0xfa, 0x2c, 0x09, 0x21, 0x16, 0x07, 0xf7, 0x0c, 0x07, 0xe6, 0x04, 0xee,
  0x06, 0x07, 0xf6, 0xf9, 0x11, 0x11, 0xfc, 0x40, 0x15, 0x0a, 0x11, 0x0c,
  0xed, 0xf6, 0xef, 0xf7, 0x18, 0x04, 0xed, 0x0c, 0xf9, 0x01, 0x13, 0x11,
  0x0f, 0x40, 0x08, 0x0f, 0x12, 0x21, 0x44, 0x13, 0xf7, 0xfa, 0xf7, 0x21,
  0x11, 0xef, 0x09, 0x18, 0x0c, 0xdf, 0x0c, 0x0a, 0x09, 0x0a, 0xfa, 0x1a,
  0xf4, 0xfb, 0xf9, 0xe6, 0xf2, 0x1a, 0xff, 0x20, 0xe5, 0x2c, 0x11, 0x1b,
  0x2a, 0x11, 0x02, 0xf2, 0x04, 0x11, 0xfc, 0x16, 0xf2, 0xed, 0x11, 0x13,
  0x11, 0xef, 0xff, 0xf9, 0xef, 0xe3, 0x02, 0xfe, 0x09, 0x13, 0x11, 0xef,
  0xdf, 0x11, 0xf9, 0x09, 0xe3, 0xe3, 0xf2, 0x11, 0xee, 0x11, 0x26, 0x39,
  0xf6, 0xef, 0xef, 0x01, 0xfd, 0x1d, 0xe8, 0xf7, 0x00, 0x03, 0xee, 0x22,
  0xfe, 0x07, 0xf9, 0xef, 0xf2, 0xef, 0xe6, 0x0a, 0x08, 0xef, 0x07, 0xe6,
  0x0f, 0xe6, 0x09, 0x11, 0xf3, 0x04, 0xc8, 0x03, 0x12, 0xf2, 0xf3, 0x1a,
  0xe6, 0x09, 0x09, 0x07, 0xec, 0x09, 0xef, 0x05, 0xc8, 0x0c, 0x1d, 0x09,
  0xe5, 0xfc, 0x09, 0xee, 0x09, 0xd5, 0xef, 0x1a, 0xe6, 0xf9, 0xf9, 0xe3,
